node {
  name: "global_step/Initializer/zeros"
  op: "Const"
  attr {
    key: "_class"
    value {
      list {
        s: "loc:@global_step"
      }
    }
  }
  attr {
    key: "_output_shapes"
    value {
      list {
        shape {
        }
      }
    }
  }
  attr {
    key: "dtype"
    value {
      type: DT_INT64
    }
  }
  attr {
    key: "value"
    value {
      tensor {
        dtype: DT_INT64
        tensor_shape {
        }
        int64_val: 0
      }
    }
  }
}
node {
  name: "global_step"
  op: "VariableV2"
  attr {
    key: "_class"
    value {
      list {
        s: "loc:@global_step"
      }
    }
  }
  attr {
    key: "_output_shapes"
    value {
      list {
        shape {
        }
      }
    }
  }
  attr {
    key: "container"
    value {
      s: ""
    }
  }
  attr {
    key: "dtype"
    value {
      type: DT_INT64
    }
  }
  attr {
    key: "shape"
    value {
      shape {
      }
    }
  }
  attr {
    key: "shared_name"
    value {
      s: ""
    }
  }
}
node {
  name: "global_step/Assign"
  op: "Assign"
  input: "global_step"
  input: "global_step/Initializer/zeros"
  attr {
    key: "T"
    value {
      type: DT_INT64
    }
  }
  attr {
    key: "_class"
    value {
      list {
        s: "loc:@global_step"
      }
    }
  }
  attr {
    key: "_output_shapes"
    value {
      list {
        shape {
        }
      }
    }
  }
  attr {
    key: "use_locking"
    value {
      b: true
    }
  }
  attr {
    key: "validate_shape"
    value {
      b: true
    }
  }
}
node {
  name: "global_step/read"
  op: "Identity"
  input: "global_step"
  attr {
    key: "T"
    value {
      type: DT_INT64
    }
  }
  attr {
    key: "_class"
    value {
      list {
        s: "loc:@global_step"
      }
    }
  }
  attr {
    key: "_output_shapes"
    value {
      list {
        shape {
        }
      }
    }
  }
}
node {
  name: "Const"
  op: "Const"
  attr {
    key: "_output_shapes"
    value {
      list {
        shape {
          dim {
            size: 876
          }
          dim {
            size: 4
          }
        }
      }
    }
  }
  attr {
    key: "dtype"
    value {
      type: DT_DOUBLE
    }
  }
  attr {
    key: "value"
    value {
      tensor {
        dtype: DT_DOUBLE
        tensor_shape {
          dim {
            size: 876
          }
          dim {
            size: 4
          }
        }
        tensor_content: "\000\000\000\000\000\000\000@\000\000\000\000\000\000@@\000\000\000\000\000\200E@\000\000\000\000\000\000\000\000\000\000\000\000\000\000\030@33333\363B@\000\000\000\000\000\200L@\244p=\n\327\243\340?\000\000\000\000\000\000\024@fffff\306Q@\000\000\000\000\000\300V@\000\000\000\000\000\000\000\000\000\000\000\000\000\000\030@33333\363K@fffff\206S@\000\000\000\000\000\000\000\000\000\000\000\000\000\000\030@\000\000\000\000\000\200K@\232\231\231\231\231\371V@\000\000\000\000\000\000\000\000\000\000\000\000\000\000\360?\000\000\000\000\000\000@@\315\314\314\314\314\014E@\354Q\270\036\205\353\261?\000\000\000\000\000\000\000@\000\000\000\000\000\200N@\000\000\000\000\000@T@\000\000\000\000\000\000\000\000\000\000\000\000\000\000\360?\000\000\000\000\000\000>@\000\000\000\000\000\200B@\000\000\000\000\000\000\000\000\000\000\000\000\000\000\010@fffff\306Q@\232\231\231\231\231\231T@q=\n\327\243p\345?\000\000\000\000\000\000\024@fffffFQ@\232\231\231\231\2319U@\000\000\000\000\000\000\000\000\000\000\000\000\000\000\034@\315\314\314\314\314\014F@\000\000\000\000\000\200P@\000\000\000\000\000\000\000\000\000\000\000\000\000\000\010@\000\000\000\000\000\000R@fffff\306U@\000\000\000\000\000\000\000\000\000\000\000\000\000\000\030@\000\000\000\000\000\200B@\000\000\000\000\000\000I@\000\000\000\000\000\000\000\000\000\000\000\000\000\000\024@333333 @\000\000\000\000\000\0009@\000\000\000\000\000\000\000\000\000\000\000\000\000\000\030@\000\000\000\000\000\200N@\232\231\231\231\231\371R@333333\323?\000\000\000\000\000\000\020@\232\231\231\231\2319P@\232\231\231\231\231\271T@\000\000\000\000\000\000\000\000\000\000\000\000\000\000\010@\315\314\314\314\314\314)@\000\000\000\000\000\000@@\000\000\000\000\000\000\000\000\000\000\000\000\000\000\360?\000\000\000\000\000\200P@\000\000\000\000\000\300V@\341z\024\256G\341\312?\000\000\000\000\000\000\024@\315\314\314\314\314\014E@\000\000\000\000\000@S@\205\353Q\270\036\205\023@\000\000\000\000\000\000\034@\232\231\231\231\231\271P@\232\231\231\231\231\271T@\000\000\000\000\000\000\000\000\000\000\000\000\000\000\030@\315\314\314\314\314\214I@\315\314\314\314\314\014O@q=\n\327\243p\315?\000\000\000\000\000\000\000@\000\000\000\000\000\200M@\000\000\000\000\000\300S@\232\231\231\231\231\231\251?\000\000\000\000\000\000\000@\000\000\000\000\000\200Q@\232\231\231\231\2319U@\000\000\000\000\000\000\000\000\000\000\000\000\000\000\010@\000\000\000\000\000\200F@\232\231\231\231\231\271P@ffffff\356?\000\000\000\000\000\000\360?fffff\306Q@\000\000\000\000\000\000V@\000\000\000\000\000\000\000\000\000\000\000\000\000\000\000@\232\231\231\231\231\0318@33333\363B@\270\036\205\353Q\270\336?\000\000\000\000\000\000\000@\000\000\000\000\000\000I@\232\231\231\231\231\271P@\000\000\000\000\000\000\000\000\000\000\000\000\000\000\360?\000\000\000\000\000\000;@\000\000\000\000\000\000G@\000\000\000\000\000\000\000\000\000\000\000\000\000\000\020@\000\000\000\000\000\000Q@\000\000\000\000\000\200U@\000\000\000\000\000\000\000\000\000\000\000\000\000\000\024@\000\000\000\000\000\200D@\000\000\000\000\000\000P@\000\000\000\000\000\000\000\000\000\000\000\000\000\000\030@\000\000\000\000\000\000P@\000\000\000\000\000\000U@\000\000\000\000\000\000\000\000\000\000\000\000\000\000\360?\000\000\000\000\000\200E@\000\000\000\000\000\000J@\000\000\000\000\000\000\000\000\000\000\000\000\000\000\360?\000\000\000\000\000\200B@\000\000\000\000\000\200M@\000\000\000\000\000\000\000\000\000\000\000\000\000\000\360?\000\000\000\000\000\200B@\315\314\314\314\314\214I@\354Q\270\036\205\353\351?\000\000\000\000\000\000\024@\000\000\000\000\000\000R@fffffFV@\037\205\353Q\270\036\345?\000\000\000\000\000\000\000@\315\314\314\314\314\214J@\000\000\000\000\000\200Q@\000\000\000\000\000\000\000\000\000\000\000\000\000\000\024@\232\231\231\231\231\0311@\000\000\000\000\000\000A@\000\000\000\000\000\000\000\000\000\000\000\000\000\000\024@\000\000\000\000\000\000@@\315\314\314\314\314\014N@\000\000\000\000\000\000\000\000\000\000\000\000\000\000\000@\000\000\000\000\000\200C@\000\000\000\000\000\200L@\232\231\231\231\231\231\251?\000\000\000\000\000\000\360?\000\000\000\000\000\000\360?\232\231\231\231\231\0318@\000\000\000\000\000\000\000\000\000\000\000\000\000\000\034@333333.@33333\363B@\000\000\000\000\000\000\000\000\000\000\000\000\000\000\360?\000\000\000\000\000\000P@\232\231\231\231\2319U@\000\000\000\000\000\000\000\000\000\000\000\000\000\000\000@\315\314\314\314\314\014O@fffff\206S@\244p=\n\327\243\320?\000\000\000\000\000\000\360?\000\000\000\000\000\300R@fffffFV@\270\036\205\353Q\270\276?\000\000\000\000\000\000\000@33333\363K@\000\000\000\000\000\300S@\000\000\000\000\000\000\000\000\000\000\000\000\000\000\024@\000\000\000\000\000\200E@\000\000\000\000\000\200O@\270\036\205\353Q\270\346?\000\000\000\000\000\000\360?33333\363B@\000\000\000\000\000\200K@\000\000\000\000\000\000\000\000\000\000\000\000\000\000\360?\000\000\000\000\000\000Q@fffff\306U@\000\000\000\000\000\000\000\000\000\000\000\000\000\000\030@\232\231\231\231\231\371R@fffff\206X@\354Q\270\036\205\353\341?\000\000\000\000\000\000\020@\232\231\231\231\231\031:@\000\000\000\000\000\000H@\000\000\000\000\000\000\000\000\000\000\000\000\000\000\010@\000\000\000\000\000\000<@\315\314\314\314\314\214J@\000\000\000\000\000\000\360?\000\000\000\000\000\000\000@\000\000\000\000\000\200P@\000\000\000\000\000\000U@{\024\256G\341z\204?\000\000\000\000\000\000\010@\232\231\231\231\2319P@\232\231\231\231\231\271T@\000\000\000\000\000\000\000\000\000\000\000\000\000\000\010@fffff\206S@\000\000\000\000\000@W@\000\000\000\000\000\000\000\000\000\000\000\000\000\000\030@\000\000\000\000\000\200C@\000\000\000\000\000\000I@\000\000\000\000\000\000\000\000\000\000\000\000\000\000\020@fffffFQ@fffff\006X@=\n\327\243p=\342?\000\000\000\000\000\000\020@\315\314\314\314\314\214I@\000\000\000\000\000\000Q@\000\000\000\000\000\000\000\000\000\000\000\000\000\000\030@\315\314\314\314\314\214@@\000\000\000\000\000\200D@{\024\256G\341z\224?\000\000\000\000\000\000\360?\000\000\000\000\000\200T@\000\000\000\000\000@X@\000\000\000\000\000\000\000\000\000\000\000\000\000\000\020@\000\000\000\000\000\0005@\315\314\314\314\314\214@@\000\000\000\000\000\000\000\000\000\000\000\000\000\000\000@\000\000\000\000\000\200Q@\000\000\000\000\000\000V@\244p=\n\327\243\320?\000\000\000\000\000\000\360?\000\000\000\000\000\000G@\315\314\314\314\314LO@\354Q\270\036\205\353\301?\000\000\000\000\000\000\030@fffff\346>@33333\363B@\270\036\205\353Q\270\236?\000\000\000\000\000\000\000@\000\000\000\000\000\200B@\000\000\000\000\000\200M@\000\000\000\000\000\000\000\000\000\000\000\000\000\000\360?\000\000\000\000\000\200D@\000\000\000\000\000\200M@)\\\217\302\365(\344?\000\000\000\000\000\000\010@fffff\346<@\315\314\314\314\314\014F@\000\000\000\000\000\000\000\000\000\000\000\000\000\000\000@\315\314\314\314\314\014E@\000\000\000\000\000\200N@\000\000\000\000\000\000\000\000\000\000\000\000\000\000\000@\000\000\000\000\000\0009@\315\314\314\314\314\214J@\303\365(\\\217\302\305?\000\000\000\000\000\000\010@\315\314\314\314\314LO@\000\000\000\000\000\300S@{\024\256G\341z\224?\000\000\000\000\000\000\030@\000\000\000\000\000\200P@\000\000\000\000\000@S@\000\000\000\000\000\000\000\000\000\000\000\000\000\000\360?\000\000\000\000\000\200L@\232\231\231\231\231yR@\000\000\000\000\000\000\000\000\000\000\000\000\000\000\024@33333sG@33333\363L@{\024\256G\341z\224?\000\000\000\000\000\000\010@\000\000\000\000\000\200D@\000\000\000\000\000\200L@\303\365(\\\217\302\305?\000\000\000\000\000\000\010@\232\231\231\231\2319P@\000\000\000\000\000\200U@\000\000\000\000\000\000\000\000\000\000\000\000\000\000\034@\000\000\000\000\000\200F@\000\000\000\000\000\200K@\232\231\231\231\231\231\251?\000\000\000\000\000\000\020@\000\000\000\000\000\300R@\232\231\231\231\231yW@\000\000\000\000\000\000\000\000\000\000\000\000\000\000\034@\000\000\000\000\000\200C@33333\363L@\000\000\000\000\000\000\000\000\000\000\000\000\000\000\024@\315\314\314\314\314\214I@\232\231\231\231\231yR@)\\\217\302\365(\364?\000\000\000\000\000\000\020@\000\000\000\000\000\200Q@\000\000\000\000\000\000V@\000\000\000\000\000\000\000\000\000\000\000\000\000\000\034@\000\000\000\000\000\200O@\000\000\000\000\000\200U@\000\000\000\000\000\000\000\000\000\000\000\000\000\000\024@\000\000\000\000\000\000H@\000\000\000\000\000\000P@\244p=\n\327\243\300?\000\000\000\000\000\000\360?\000\000\000\000\000\200P@\000\000\000\000\000\200U@\000\000\000\000\000\000\000\000\000\000\000\000\000\000\034@33333\363B@\000\000\000\000\000\000J@\000\000\000\000\000\000\000\000\000\000\000\000\000\000\000@fffffFQ@\000\000\000\000\000\200V@\217\302\365(\\\217\322?\000\000\000\000\000\000\034@\000\000\000\000\000\000<@\315\314\314\314\314\014E@\000\000\000\000\000\000\000\000\000\000\000\000\000\000\360?\000\000\000\000\000\000Q@\000\000\000\000\000\200T@\000\000\000\000\000\000\000\000\000\000\000\000\000\000\024@\000\000\000\000\000\200L@\232\231\231\231\231\371R@\000\000\000\000\000\000\000\000\000\000\000\000\000\000\030@fffff\306Q@\000\000\000\000\000\200U@\000\000\000\000\000\000\000\000\000\000\000\000\000\000\030@\232\231\231\231\231\271P@\000\000\000\000\000\200T@\000\000\000\000\000\000\000\000\000\000\000\000\000\000\034@\000\000\000\000\000\200P@fffff\306U@\000\000\000\000\000\000\000\000\000\000\000\000\000\000\024@\315\314\314\314\314\214I@\000\000\000\000\000\300R@\354Q\270\036\205\353\301?\000\000\000\000\000\000\030@\232\231\231\231\231\0318@33333\363C@\000\000\000\000\000\000\374?\000\000\000\000\000\000\010@\315\314\314\314\314\014F@\000\000\000\000\000\200N@\000\000\000\000\000\000\000\000\000\000\000\000\000\000\020@\000\000\000\000\000\200P@\232\231\231\231\2319U@{\024\256G\341z\204?\000\000\000\000\000\000\030@fffff\346<@\315\314\314\314\314\014E@\000\000\000\000\000\000\000\000\000\000\000\000\000\000\034@\000\000\000\000\000\000Q@fffff\306U@\000\000\000\000\000\000\000\000\000\000\000\000\000\000\000@\000\000\000\000\000\000;@\000\000\000\000\000\200K@\000\000\000\000\000\000\000\000\000\000\000\000\000\000\000@\315\314\314\314\314\214A@\000\000\000\000\000\000K@{\024\256G\341z\224?\000\000\000\000\000\000\360?\315\314\314\314\314\214A@33333\363K@\000\000\000\000\000\000\000\000\000\000\000\000\000\000\030@\000\000\000\000\000\000I@\000\000\000\000\000\200Q@\000\000\000\000\000\000\000\000\000\000\000\000\000\000\020@\315\314\314\314\314\314J@\315\314\314\314\314LO@\327\243p=\n\327\001@\000\000\000\000\000\000\000@\000\000\000\000\000\000G@\315\314\314\314\314\014N@\000\000\000\000\000\000\000\000\000\000\000\000\000\000\000@fffff\3465@\315\314\314\314\314\014E@\000\000\000\000\000\000\000\000\000\000\000\000\000\000\010@\000\000\000\000\000\000,@\000\000\000\000\000\000G@\000\000\000\000\000\000\000\000\000\000\000\000\000\000\024@\000\000\000\000\000\000\"@\315\314\314\314\314\214@@\000\000\000\000\000\000\000\000\000\000\000\000\000\000\034@\315\314\314\314\314\314%@\000\000\000\000\000\000;@\000\000\000\000\000\000\000\000\000\000\000\000\000\000\020@\315\314\314\314\314\014N@fffff\306U@\000\000\000\000\000\000\000\000\000\000\000\000\000\000\010@\000\000\000\000\000\200K@\000\000\000\000\000\200T@{\024\256G\341z\204?\000\000\000\000\000\000\000@\000\000\000\000\000\200E@\315\314\314\314\314\014N@\000\000\000\000\000\000\000\000\000\000\000\000\000\000\000@\000\000\000\000\000\200C@\315\314\314\314\314\014O@\000\000\000\000\000\000\000\000\000\000\000\000\000\000\034@\315\314\314\314\314\014O@\232\231\231\231\231\371R@\341z\024\256G\341\366?\000\000\000\000\000\000\020@\000\000\000\000\000\000,@fffff\346>@{\024\256G\341z\224?\000\000\000\000\000\000\360?\232\231\231\231\2319P@\000\000\000\000\000\000U@\000\000\000\000\000\000\000\000\000\000\000\000\000\000\030@\000\000\000\000\000\000<@\000\000\000\000\000\000G@\000\000\000\000\000\000\000\000\000\000\000\000\000\000\000@\232\231\231\231\2319P@\000\000\000\000\000\000U@\000\000\000\000\000\000\000\000\000\000\000\000\000\000\000@\000\000\000\000\000\000B@\000\000\000\000\000\200K@\000\000\000\000\000\000\000\000\000\000\000\000\000\000\030@\000\000\000\000\000\000\"@33333\363C@\000\000\000\000\000\000\000\000\000\000\000\000\000\000\000@\000\000\000\000\000\200P@\000\000\000\000\000\000U@\000\000\000\000\000\000\000\000\000\000\000\000\000\000\030@\000\000\000\000\000\000A@\000\000\000\000\000\200F@\000\000\000\000\000\000\000\000\000\000\000\000\000\000\034@33333\363K@\232\231\231\231\231\371R@\270\036\205\353Q\270\236?\000\000\000\000\000\000\024@\000\000\000\000\000\000G@\232\231\231\231\231\031H@\303\365(\\\217\302\305?\000\000\000\000\000\000\020@\000\000\000\000\000\200M@\000\000\000\000\000@R@\000\000\000\000\000\000\000\000\000\000\000\000\000\000\360?\000\000\000\000\000\200P@\000\000\000\000\000@T@\000\000\000\000\000\000\000\000\000\000\000\000\000\000\020@\000\000\000\000\000\200B@\000\000\000\000\000\000G@\000\000\000\000\000\000\000\000\000\000\000\000\000\000\010@\000\000\000\000\000\0009@\315\314\314\314\314\014E@\354Q\270\036\205\353\351?\000\000\000\000\000\000\024@\232\231\231\231\231\031:@\000\000\000\000\000\000H@\000\000\000\000\000\000\000\000\000\000\000\000\000\000\010@33333sH@fffff\006T@\000\000\000\000\000\000\000\000\000\000\000\000\000\000\034@\000\000\000\000\000\000<@33333\363C@\037\205\353Q\270\036\345?\000\000\000\000\000\000\360?fffff\3465@\000\000\000\000\000\200B@\232\231\231\231\231\231\251?\000\000\000\000\000\000\010@\000\000\000\000\000\200E@\000\000\000\000\000\200O@{\024\256G\341z\324?\000\000\000\000\000\000\010@\232\231\231\231\231\031:@\000\000\000\000\000\200F@\000\000\000\000\000\000\000\000\000\000\000\000\000\000\030@\000\000\000\000\000\000@@\000\000\000\000\000\000H@\000\000\000\000\000\000\000\000\000\000\000\000\000\000\010@\000\000\000\000\000\0002@fffff\346<@\000\000\000\000\000\000\000\000\000\000\000\000\000\000\360?\000\000\000\000\000\200C@\000\000\000\000\000\000K@\000\000\000\000\000\000\000\000\000\000\000\000\000\000\000@fffff\346I@\232\231\231\231\2319P@\000\000\000\000\000\000\000\000\000\000\000\000\000\000\000@\000\000\000\000\000\200P@\000\000\000\000\000\000U@\000\000\000\000\000\000\000\000\000\000\000\000\000\000\010@fffff\306Q@\000\000\000\000\000\000U@\024\256G\341z\024\336?\000\000\000\000\000\000\024@\000\000\000\000\000\0007@\315\314\314\314\314\014F@\000\000\000\000\000\000\000\000\000\000\000\000\000\000\000@\000\000\000\000\000\200M@\000\000\000\000\000\200U@\000\000\000\000\000\000\000\000\000\000\000\000\000\000\000@\315\314\314\314\314\3148@\000\000\000\000\000\000A@\270\036\205\353Q\270\236?\000\000\000\000\000\000\020@\315\314\314\314\314\214A@33333sG@\270\036\205\353Q\270\276?\000\000\000\000\000\000\024@33333\363L@\000\000\000\000\000@R@\270\036\205\353Q\270\236?\000\000\000\000\000\000\020@ffffffE@\000\000\000\000\000\000K@{\024\256G\341z\264?\000\000\000\000\000\000\030@\232\231\231\231\2319P@\232\231\231\231\2319U@\000\000\000\000\000\000\000\000\000\000\000\000\000\000\000@333333\017@\232\231\231\231\231\031:@\000\000\000\000\000\000\000\000\000\000\000\000\000\000\010@fffff\346>@\232\231\231\231\231\231L@\\\217\302\365(\\\337?\000\000\000\000\000\000\024@fffff\306Q@\000\000\000\000\000\200U@\000\000\000\000\000\000\000\000\000\000\000\000\000\000\030@\000\000\000\000\000\200L@fffffFQ@\000\000\000\000\000\000\000\000\000\000\000\000\000\000\020@\000\000\000\000\000\200Q@\232\231\231\231\2319U@ffffff\326?\000\000\000\000\000\000\000@\000\000\000\000\000\000H@\000\000\000\000\000\000Q@{\024\256G\341z\224?\000\000\000\000\000\000\020@\315\314\314\314\314\314)@\000\000\000\000\000\200B@\000\000\000\000\000\000\000\000\000\000\000\000\000\000\020@\232\231\231\231\2319P@fffff\306U@\000\000\000\000\000\000\000\000\000\000\000\000\000\000\034@\232\231\231\231\2319P@\232\231\231\231\231\271T@{\024\256G\341z\304?\000\000\000\000\000\000\030@\315\314\314\314\314\014F@\000\000\000\000\000@R@\000\000\000\000\000\000\000\000\000\000\000\000\000\000\020@\000\000\000\000\000\000;@\000\000\000\000\000\000H@\000\000\000\000\000\000\000\000\000\000\000\000\000\000\024@\315\314\314\314\314\214J@\000\000\000\000\000\200P@\000\000\000\000\000\000\000\000\000\000\000\000\000\000\020@fffff\306Q@fffffFV@\000\000\000\000\000\000\000\000\000\000\000\000\000\000\024@fffff\346>@\315\314\314\314\314\214J@\256G\341z\024\256\357?\000\000\000\000\000\000\360?33333\363B@\000\000\000\000\000\200L@\000\000\000\000\000\000\000\000\000\000\000\000\000\000\024@\232\231\231\231\231\271P@\000\000\000\000\000\000U@\000\000\000\000\000\000\000\000\000\000\000\000\000\000\020@33333sG@\000\000\000\000\000\200P@\000\000\000\000\000\000\000\000\000\000\000\000\000\000\030@\000\000\000\000\000\200N@\000\000\000\000\000\000R@{\024\256G\341z\264?\000\000\000\000\000\000\030@\000\000\000\000\000\300R@\232\231\231\231\231\371V@\000\000\000\000\000\000\340?\000\000\000\000\000\000\360?\000\000\000\000\000\200C@\000\000\000\000\000\200N@\000\000\000\000\000\000\000\000\000\000\000\000\000\000\024@\000\000\000\000\000\200M@\000\000\000\000\000@T@\000\000\000\000\000\000\000\000\000\000\000\000\000\000\000@\315\314\314\314\314\014F@\000\000\000\000\000\200N@\000\000\000\000\000\000\000\000\000\000\000\000\000\000\034@33333sG@33333\363K@{\024\256G\341z\204?\000\000\000\000\000\000\030@\000\000\000\000\000\200K@\000\000\000\000\000\300R@\000\000\000\000\000\000\000\000\000\000\000\000\000\000\034@\000\000\000\000\000\200P@\000\000\000\000\000@T@\000\000\000\000\000\000\000\000\000\000\000\000\000\000\000@\000\000\000\000\000 Q@\000\000\000\000\000\200T@\000\000\000\000\000\000\000\000\000\000\000\000\000\000\024@\000\000\000\000\000\0007@33333\363C@\000\000\000\000\000\000\000\000\000\000\000\000\000\000\030@33333sH@\000\000\000\000\000@S@{\024\256G\341z\204?\000\000\000\000\000\000\034@\000\000\000\000\000\000A@\000\000\000\000\000\200E@\270\036\205\353Q\270\236?\000\000\000\000\000\000\360?\315\314\314\314\314\214J@\000\000\000\000\000\200P@\000\000\000\000\000\000\000\000\000\000\000\000\000\000\034@\000\000\000\000\000\000H@\000\000\000\000\000\000P@\000\000\000\000\000\000\000\000\000\000\000\000\000\000\034@\000\000\000\000\000\000Q@\000\000\000\000\000\200T@\000\000\000\000\000\000\000\000\000\000\000\000\000\000\000@33333\363K@\232\231\231\231\231\271T@\000\000\000\000\000\000\000\000\000\000\000\000\000\000\010@\000\000\000\000\000\000P@fffff\306U@\000\000\000\000\000\000\000\000\000\000\000\000\000\000\000@\315\314\314\314\314LF@\000\000\000\000\000\200N@333333\303?\000\000\000\000\000\000\010@\000\000\000\000\000@S@\000\000\000\000\000@W@\000\000\000\000\000\000\000\000\000\000\000\000\000\000\000@\000\000\000\000\000\000R@\232\231\231\231\2319U@\327\243p=\n\327\323?\000\000\000\000\000\000\000@\000\000\000\000\000\200D@\000\000\000\000\000\200O@\000\000\000\000\000\000\000\000\000\000\000\000\000\000\034@\315\314\314\314\314\014F@\232\231\231\231\2319P@\000\000\000\000\000\000\000\000\000\000\000\000\000\000\024@\000\000\000\000\000@S@\232\231\231\231\231yW@\000\000\000\000\000\000\000\000\000\000\000\000\000\000\030@fffffFQ@\000\000\000\000\000\000V@\000\000\000\000\000\000\000\000\000\000\000\000\000\000\000@\232\231\231\231\231\271P@\000\000\000\000\000\200V@\000\000\000\000\000\000\000\000\000\000\000\000\000\000\360?\000\000\000\000\000\200Q@fffff\306U@\000\000\000\000\000\000\000\000\000\000\000\000\000\000\010@fffffFQ@\000\000\000\000\000\000V@\000\000\000\000\000\000\000\000\000\000\000\000\000\000\030@\315\314\314\314\314\014F@33333\363K@\000\000\000\000\000\000\000\000\000\000\000\000\000\000\024@\000\000\000\000\000\0005@\000\000\000\000\000\200D@\000\000\000\000\000\000\000\000\000\000\000\000\000\000\034@\000\000\000\000\000\200C@\000\000\000\000\000@R@\354Q\270\036\205\353\261?\000\000\000\000\000\000\000@\315\314\314\314\314\214@@\000\000\000\000\000\000I@\354Q\270\036\205\353\301?\000\000\000\000\000\000\030@\000\000\000\000\000\000H@\232\231\231\231\231\271P@\000\000\000\000\000\000\000\000\000\000\000\000\000\000\034@\000\000\000\000\000\000>@\315\314\314\314\314\014E@{\024\256G\341z\244?\000\000\000\000\000\000\030@fffff\346>@33333sG@\000\000\000\000\000\000\000\000\000\000\000\000\000\000\030@\232\231\231\231\231\231C@\232\231\231\231\231\231L@\000\000\000\000\000\000\320?\000\000\000\000\000\000\030@\000\000\000\000\000\000$@\315\314\314\314\314\214@@\000\000\000\000\000\000\000\000\000\000\000\000\000\000\030@\000\000\000\000\000\200O@\000\000\000\000\000@R@\000\000\000\000\000\000\000\000\000\000\000\000\000\000\034@\315\314\314\314\314\014N@\000\000\000\000\000\000R@\000\000\000\000\000\000\000\000\000\000\000\000\000\000\010@\315\314\314\314\314\214@@\000\000\000\000\000\000K@)\\\217\302\365(\274?\000\000\000\000\000\000\034@fffff\306Q@\232\231\231\231\231\371V@\000\000\000\000\000\000\000\000\000\000\000\000\000\000\020@\000\000\000\000\000\000P@fffff\206S@\000\000\000\000\000\000\000\000\000\000\000\000\000\000\030@fffffFQ@\232\231\231\231\2319U@\000\000\000\000\000\000\000\000\000\000\000\000\000\000\024@\000\000\000\000\000\000<@\315\314\314\314\314\014E@\000\000\000\000\000\000\000\000\000\000\000\000\000\000\360?\000\000\000\000\000\000@@\000\000\000\000\000\000G@\000\000\000\000\000\000\000\000\000\000\000\000\000\000\020@\000\000\000\000\000\000Q@\000\000\000\000\000@T@\000\000\000\000\000\000\000\000\000\000\000\000\000\000\034@33333sH@\000\000\000\000\000\200P@\000\000\000\000\000\000\000\000\000\000\000\000\000\000\010@\000\000\000\000\000\200M@\000\000\000\000\000\000U@\000\000\000\000\000\000\000\000\000\000\000\000\000\000\360?\315\314\314\314\314\014N@fffff\206S@\000\000\000\000\000\000\000\000\000\000\000\000\000\000\000@\000\000\000\000\000\200D@\315\314\314\314\314\014O@\000\000\000\000\000\000\000\000\000\000\000\000\000\000\024@\232\231\231\231\231\031P@33333sQ@\000\000\000\000\000\000\000\000\000\000\000\000\000\000\034@\232\231\231\231\231\271P@\000\000\000\000\000\000U@\000\000\000\000\000\000\000\000\000\000\000\000\000\000\034@\232\231\231\231\231\371R@\000\000\000\000\000@W@\232\231\231\231\231\231\251?\000\000\000\000\000\000\020@\000\000\000\000\000\200F@\000\000\000\000\000\000P@)\\\217\302\365(\274?\000\000\000\000\000\000\030@\315\314\314\314\314\014N@\232\231\231\231\231\271P@\000\000\000\000\000\000\000\000\000\000\000\000\000\000\020@\232\231\231\231\231\0318@33333sG@\\\217\302\365(\\\347?\000\000\000\000\000\000\024@\232\231\231\231\231\371R@fffff\306U@\000\000\000\000\000\000\000\000\000\000\000\000\000\000\000@\000\000\000\000\000\000H@\000\000\000\000\000\000Q@\000\000\000\000\000\000\000\000\000\000\000\000\000\000\360?\000\000\000\000\000\0005@fffff\346<@\000\000\000\000\000\000\000\000\000\000\000\000\000\000\020@\000\000\000\000\000\200E@\232\231\231\231\2319P@{\024\256G\341z\204?\000\000\000\000\000\000\030@\000\000\000\000\000\000\010@\000\000\000\000\000\000;@\000\000\000\000\000\000\000\000\000\000\000\000\000\000\020@\000\000\000\000\000\200M@\000\000\000\000\000\300S@\000\000\000\000\000\000\000\000\000\000\000\000\000\000\020@\000\000\000\000\000\000Q@\232\231\231\231\231\371V@\000\000\000\000\000\000\000\000\000\000\000\000\000\000\024@\000\000\000\000\000\300R@\000\000\000\000\000\000V@{\024\256G\341z\224?\000\000\000\000\000\000\034@\315\314\314\314\314LF@\000\000\000\000\000\000P@ffffff\346?\000\000\000\000\000\000\360?\000\000\000\000\000\000H@\000\000\000\000\000\000P@\354Q\270\036\205\353\261?\000\000\000\000\000\000\034@\000\000\000\000\000\000A@33333sH@ffffff\346?\000\000\000\000\000\000\034@\000\000\000\000\000\200P@\000\000\000\000\000\200U@{\024\256G\341z\204?\000\000\000\000\000\000\010@\000\000\000\000\000\000B@\000\000\000\000\000\200M@{\024\256G\341z\224?\000\000\000\000\000\000\010@fffff\306Q@\000\000\000\000\000\300W@\000\000\000\000\000\000\000\000\000\000\000\000\000\000\010@fffff\3465@33333\363B@\000\000\000\000\000\000\000\000\000\000\000\000\000\000\360?\000\000\000\000\000\000H@\000\000\000\000\000\000P@\000\000\000\000\000\000\000\000\000\000\000\000\000\000\360?\232\231\231\231\231\0311@\000\000\000\000\000\200D@\000\000\000\000\000\000\000\000\000\000\000\000\000\000\000@fffff\346<@\000\000\000\000\000\200E@\256G\341z\024\256\377?\000\000\000\000\000\000\030@\000\000\000\000\000\200P@fffff\006T@\000\000\000\000\000\000\000\000\000\000\000\000\000\000\024@33333\363C@\000\000\000\000\000\200P@\000\000\000\000\000\000\000\000\000\000\000\000\000\000\024@\000\000\000\000\000\000\034@\000\000\000\000\000\0005@\000\000\000\000\000\000\000\000\000\000\000\000\000\000\010@\315\314\314\314\314\014F@\315\314\314\314\314\314J@\244p=\n\327\243\300?\000\000\000\000\000\000\360?\315\314\314\314\314\014E@\000\000\000\000\000\200M@\000\000\000\000\000\000\000\000\000\000\000\000\000\000\024@33333\363B@33333sG@\n\327\243p=\n\267?\000\000\000\000\000\000\360?\000\000\000\000\000\000H@\232\231\231\231\231\371R@\000\000\000\000\000\000\000\000\000\000\000\000\000\000\024@\000\000\000\000\000\000P@fffff\206S@\000\000\000\000\000\000\000\000\000\000\000\000\000\000\010@\315\314\314\314\314\214I@\000\000\000\000\000@R@\000\000\000\000\000\000\000\000\000\000\000\000\000\000\030@333333 @\000\000\000\000\000\0005@\000\000\000\000\000\000\000\000\000\000\000\000\000\000\034@\315\314\314\314\314\014N@\000\000\000\000\000@S@\000\000\000\000\000\000\000\000\000\000\000\000\000\000\024@\000\000\000\000\000@R@\000\000\000\000\000\300V@\000\000\000\000\000\000\000\000\000\000\000\000\000\000\024@\000\000\000\000\000\200M@\000\000\000\000\000@R@\000\000\000\000\000\000\000\000\000\000\000\000\000\000\000@\000\000\000\000\000\200F@\000\000\000\000\000\200N@\000\000\000\000\000\000\000\000\000\000\000\000\000\000\034@\000\000\000\000\000\200C@\315\314\314\314\314\014N@\000\000\000\000\000\000\000\000\000\000\000\000\000\000\024@\000\000\000\000\000\200B@\315\314\314\314\314\014N@{\024\256G\341z\224?\000\000\000\000\000\000\360?\000\000\000\000\000\000R@\232\231\231\231\231yW@\n\327\243p=\n\307?\000\000\000\000\000\000\034@\000\000\000\000\000\000A@\000\000\000\000\000\000H@\000\000\000\000\000\000\000\000\000\000\000\000\000\000\020@\232\231\231\231\231\0311@\000\000\000\000\000\000A@{\024\256G\341z\204?\000\000\000\000\000\000\024@\000\000\000\000\000\000R@\000\000\000\000\000\300V@\315\314\314\314\314\314\344?\000\000\000\000\000\000\360?\000\000\000\000\000\300R@\000\000\000\000\000\000U@\n\327\243p=\n\307?\000\000\000\000\000\000\000@\000\000\000\000\000\200B@33333sH@\000\000\000\000\000\000\000\000\000\000\000\000\000\000\020@\000\000\000\000\000\000J@\000\000\000\000\000\000Q@ffffff\326?\000\000\000\000\000\000\360?33333sG@\000\000\000\000\000\200O@\000\000\000\000\000\000\000\000\000\000\000\000\000\000\020@\000\000\000\000\000\200K@\000\000\000\000\000@R@\000\000\000\000\000\000\000\000\000\000\000\000\000\000\024@\000\000\000\000\000\200C@\000\000\000\000\000\200N@\000\000\000\000\000\000\000\000\000\000\000\000\000\000\020@\000\000\000\000\000\000;@\000\000\000\000\000\200F@\000\000\000\000\000\000\000\000\000\000\000\000\000\000\000@\000\000\000\000\000\200K@\000\000\000\000\000@R@\000\000\000\000\000\000\000\000\000\000\000\000\000\000\024@\232\231\231\231\231\271P@\000\000\000\000\000\000U@{\024\256G\341z\224?\000\000\000\000\000\000\010@\000\000\000\000\000\200D@\000\000\000\000\000\200P@\000\000\000\000\000\000\000\000\000\000\000\000\000\000\024@\000\000\000\000\000\000J@\000\000\000\000\000\000Q@\000\000\000\000\000\000\000\000\000\000\000\000\000\000\010@\000\000\000\000\000\000G@\315\314\314\314\314\014N@\000\000\000\000\000\000\000\000\000\000\000\000\000\000\034@\000\000\000\000\000\000P@\232\231\231\231\231\271T@\000\000\000\000\000\000\000\000\000\000\000\000\000\000\024@\000\000\000\000\000\200C@\000\000\000\000\000\200Q@\000\000\000\000\000\000\000\000\000\000\000\000\000\000\000@\315\314\314\314\314\214A@\000\000\000\000\000\000I@)\\\217\302\365(\274?\000\000\000\000\000\000\030@33333\363K@fffff\206S@\000\000\000\000\000\000\000\000\000\000\000\000\000\000\034@\315\314\314\314\314\214I@\232\231\231\231\231\231L@\270\036\205\353Q\270\316?\000\000\000\000\000\000\000@\000\000\000\000\000\0005@fffff\346<@\232\231\231\231\231\231\271?\000\000\000\000\000\000\034@fffff\346<@33333sG@\217\302\365(\\\217\322?\000\000\000\000\000\000\030@\232\231\231\231\231\0318@\000\000\000\000\000\000J@\000\000\000\000\000\000\000\000\000\000\000\000\000\000\020@fffff\306Q@\000\000\000\000\000\200U@\000\000\000\000\000\000\000\000\000\000\000\000\000\000\034@33333sG@\000\000\000\000\000\200O@{\024\256G\341z\224?\000\000\000\000\000\000\024@\000\000\000\000\000@R@\000\000\000\000\000\200V@\270\036\205\353Q\270\236?\000\000\000\000\000\000\010@\000\000\000\000\000\000G@\000\000\000\000\000\200M@\000\000\000\000\000\000\000\000\000\000\000\000\000\000\024@\000\000\000\000\000\200B@\000\000\000\000\000\000G@\000\000\000\000\000\000\000\000\000\000\000\000\000\000\000@\000\000\000\000\000\000H@fffff\006T@\000\000\000\000\000\000\000\000\000\000\000\000\000\000\030@\232\231\231\231\2319P@fffffFV@\270\036\205\353Q\270\346?\000\000\000\000\000\000\020@\000\000\000\000\000\000\034@\000\000\000\000\000\000@@\000\000\000\000\000\000\320?\000\000\000\000\000\000\024@\315\314\314\314\314\214I@\000\000\000\000\000\200O@\000\000\000\000\000\000\000\000\000\000\000\000\000\000\000@fffff\206S@fffff\206X@{\024\256G\341z\204?\000\000\000\000\000\000\020@\000\000\000\000\000\000B@33333\363K@\303\365(\\\217\302\305?\000\000\000\000\000\000\034@\315\314\314\314\314\314)@\000\000\000\000\000\200B@{\024\256G\341z\204?\000\000\000\000\000\000\020@\315\314\314\314\314\214I@\232\231\231\231\231\371R@\000\000\000\000\000\000\000\000\000\000\000\000\000\000\034@33333\263B@33333sG@\000\000\000\000\000\000\000\000\000\000\000\000\000\000\034@\000\000\000\000\000\000I@\000\000\000\000\000\300R@\000\000\000\000\000\000\000\000\000\000\000\000\000\000\000@\315\314\314\314\314\014F@\000\000\000\000\000\000Q@\000\000\000\000\000\000\000\000\000\000\000\000\000\000\010@\315\314\314\314\314\014F@\000\000\000\000\000\000P@\000\000\000\000\000\000\000\000\000\000\000\000\000\000\030@\000\000\000\000\000\200P@\232\231\231\231\231\271T@\000\000\000\000\000\000\000\000\000\000\000\000\000\000\024@\000\000\000\000\000\000,@\000\000\000\000\000\000B@\n\327\243p=\n\307?\000\000\000\000\000\000\000@\000\000\000\000\000\0009@\000\000\000\000\000\000G@\000\000\000\000\000\000\000\000\000\000\000\000\000\000\020@\315\314\314\314\314\014E@\315\314\314\314\314\214I@\232\231\231\231\231\231\341?\000\000\000\000\000\000\020@ffffffN@\315\314\314\314\314\214P@{\024\256G\341z\244?\000\000\000\000\000\000\020@\315\314\314\314\314\214I@\000\000\000\000\000\200Q@\000\000\000\000\000\000\000\000\000\000\000\000\000\000\020@\315\314\314\314\314\214I@\232\231\231\231\231yR@\000\000\000\000\000\000\000\000\000\000\000\000\000\000\034@\232\231\231\231\231\031:@33333\363K@\000\000\000\000\000\000\000\000\000\000\000\000\000\000\000@fffff\3463@\000\000\000\000\000\200C@{\024\256G\341z\204?\000\000\000\000\000\000\030@\315\314\314\314\314\314%@\000\000\000\000\000\000@@333333\323?\000\000\000\000\000\000\030@\000\000\000\000\000\000H@\000\000\000\000\000\200M@\000\000\000\000\000\000\000\000\000\000\000\000\000\000\024@\000\000\000\000\000\0000@\000\000\000\000\000\200B@\000\000\000\000\000\000\000\000\000\000\000\000\000\000\030@\000\000\000\000\000\200C@\000\000\000\000\000\000I@\270\036\205\353Q\270\236?\000\000\000\000\000\000\024@\000\000\000\000\000\000P@\000\000\000\000\000@T@{\024\256G\341z\204?\000\000\000\000\000\000\000@\000\000\000\000\000@S@\000\000\000\000\000@W@\000\000\000\000\000\000\000\000\000\000\000\000\000\000\010@33333\363B@\000\000\000\000\000\200M@\000\000\000\000\000\000\000\000\000\000\000\000\000\000\000@\000\000\000\000\000\200C@\315\314\314\314\314\014O@{\024\256G\341z\224?\000\000\000\000\000\000\360?\315\314\314\314\314\214A@\000\000\000\000\000\200O@\000\000\000\000\000\000\000\000\000\000\000\000\000\000\020@\000\000\000\000\000\200C@\232\231\231\231\2319P@\000\000\000\000\000\000\000\000\000\000\000\000\000\000\030@\000\000\000\000\000\200P@\000\000\000\000\000@T@\244p=\n\327\243\340?\000\000\000\000\000\000\030@\000\000\000\000\000\000;@\315\314\314\314\314\014E@{\024\256G\341z\244?\000\000\000\000\000\000\030@33333\363C@\000\000\000\000\000\200O@\354Q\270\036\205\353\261?\000\000\000\000\000\000\024@\232\231\231\231\2319P@\000\000\000\000\000\000V@\000\000\000\000\000\000\000\000\000\000\000\000\000\000\000@\000\000\000\000\000\200L@\000\000\000\000\000@S@\000\000\000\000\000\000\000\000\000\000\000\000\000\000\360?\000\000\000\000\000\000>@33333\363K@\000\000\000\000\000\000\000\000\000\000\000\000\000\000\020@\232\231\231\231\231\0318@\315\314\314\314\314\214@@\000\000\000\000\000\000\000\000\000\000\000\000\000\000\020@33333sH@\232\231\231\231\231\371R@\000\000\000\000\000\000\000\000\000\000\000\000\000\000\030@fffff\306Q@\232\231\231\231\231yW@{\024\256G\341z\354?\000\000\000\000\000\000\000@fffff\306Q@fffff\306U@\000\000\000\000\000\000\000\000\000\000\000\000\000\000\360?\315\314\314\314\314\214A@\000\000\000\000\000\000H@\000\000\000\000\000\000\000\000\000\000\000\000\000\000\034@333333.@\000\000\000\000\000\000>@\000\000\000\000\000\000\000\000\000\000\000\000\000\000\024@fffff\3465@33333\363C@\000\000\000\000\000\000\000\000\000\000\000\000\000\000\034@\000\000\000\000\000\000\"@\000\000\000\000\000\000@@\000\000\000\000\000\000\000\000\000\000\000\000\000\000\010@\000\000\000\000\000\200D@\000\000\000\000\000\000Q@\000\000\000\000\000\000\000\000\000\000\000\000\000\000\024@\000\000\000\000\000\000P@\000\000\000\000\000\200U@333333\303?\000\000\000\000\000\000\024@fffff\306Q@fffffFV@\000\000\000\000\000\000\000\000\000\000\000\000\000\000\024@fffff\306Q@\000\000\000\000\000\200U@\000\000\000\000\000\000\000\000\000\000\000\000\000\000\020@33333\363B@\000\000\000\000\000\200L@\000\000\000\000\000\000\000\000\000\000\000\000\000\000\000@fffff\346>@\000\000\000\000\000\200M@H\341z\024\256G\351?\000\000\000\000\000\000\020@\315\314\314\314\314\314R@\000\000\000\000\000\000V@\000\000\000\000\000\000\000\000\000\000\000\000\000\000\000@\000\000\000\000\000\200L@\232\231\231\231\231\271T@\000\000\000\000\000\000\000\000\000\000\000\000\000\000\034@\000\000\000\000\000\200M@fffffFV@)\\\217\302\365(\334?\000\000\000\000\000\000\030@\000\000\000\000\000\000A@\000\000\000\000\000\000G@\000\000\000\000\000\000\000\000\000\000\000\000\000\000\360?\000\000\000\000\000\000H@\000\000\000\000\000@R@\000\000\000\000\000\000\000\000\000\000\000\000\000\000\020@\000\000\000\000\000\200C@\000\000\000\000\000\200F@\000\000\000\000\000\000\000\000\000\000\000\000\000\000\030@\000\000\000\000\000\200E@\000\000\000\000\000\200O@\000\000\000\000\000\000\000\000\000\000\000\000\000\000\010@\000\000\000\000\000\000B@33333sH@\000\000\000\000\000\000\000\000\000\000\000\000\000\000\000@\000\000\000\000\000\200M@\232\231\231\231\231\371R@\000\000\000\000\000\000\000\000\000\000\000\000\000\000\020@fffffFQ@\000\000\000\000\000\000V@\000\000\000\000\000\000\000\000\000\000\000\000\000\000\360?\000\000\000\000\000\200N@\000\000\000\000\000\300S@\000\000\000\000\000\000\000\000\000\000\000\000\000\000\010@\000\000\000\000\000\200B@\000\000\000\000\000\000P@\000\000\000\000\000\000\000\000\000\000\000\000\000\000\360?\000\000\000\000\000\000H@fffffFQ@\000\000\000\000\000\000\000\000\000\000\000\000\000\000\030@\000\000\000\000\000\000J@\232\231\231\231\231yR@\000\000\000\000\000\000\000\000\000\000\000\000\000\000\034@fffff\346>@\315\314\314\314\314\014E@\000\000\000\000\000\000\000\000\000\000\000\000\000\000\000@\000\000\000\000\000\0003@\315\314\314\314\314\214@@\000\000\000\000\000\000\000\000\000\000\000\000\000\000\030@\000\000\000\000\000\000P@fffff\006T@\000\000\000\000\000\000\000\000\000\000\000\000\000\000\010@\232\231\231\231\231\371R@\232\231\231\231\231yW@\000\000\000\000\000\000\000\000\000\000\000\000\000\000\024@\000\000\000\000\000\000A@\000\000\000\000\000\200O@\000\000\000\000\000\000\000\000\000\000\000\000\000\000\360?\232\231\231\231\231\271P@\000\000\000\000\000@T@=\n\327\243p=\332?\000\000\000\000\000\000\000@\232\231\231\231\231\0318@\315\314\314\314\314\014F@\000\000\000\000\000\000\000\000\000\000\000\000\000\000\034@\000\000\000\000\000\000Q@\232\231\231\231\231\271T@\000\000\000\000\000\000\000\000\000\000\000\000\000\000\360?\000\000\000\000\000\000R@fffffFV@\000\000\000\000\000\000\000\000\000\000\000\000\000\000\000@\232\231\231\231\231\371R@\232\231\231\231\231yW@{\024\256G\341z\224?\000\000\000\000\000\000\010@\315\314\314\314\314\014E@\000\000\000\000\000\200N@\000\000\000\000\000\000\000\000\000\000\000\000\000\000\030@\000\000\000\000\000\0007@\315\314\314\314\314\014N@\000\000\000\000\000\000\000\000\000\000\000\000\000\000\034@fffffFQ@\000\000\000\000\000\200T@\000\000\000\000\000\000\000\000\000\000\000\000\000\000\010@\000\000\000\000\000\200K@\000\000\000\000\000@R@{\024\256G\341z\204?\000\000\000\000\000\000\360?\232\231\231\231\2319P@\000\000\000\000\000\200U@\000\000\000\000\000\000\000\000\000\000\000\000\000\000\010@\000\000\000\000\000\000R@\232\231\231\231\231\371V@\000\000\000\000\000\000\000\000\000\000\000\000\000\000\034@ffffffN@fffff\306Q@\000\000\000\000\000\000\000\000\000\000\000\000\000\000\010@\000\000\000\000\000\000R@\000\000\000\000\000@W@\n\327\243p=\n\307?\000\000\000\000\000\000\010@33333sG@\232\231\231\231\2319P@\000\000\000\000\000\000\000\000\000\000\000\000\000\000\024@\000\000\000\000\000\200K@fffff\306Q@\000\000\000\000\000\000\000\000\000\000\000\000\000\000\360?33333sG@fffff\306Q@\\\217\302\365(\\\357?\000\000\000\000\000\000\360?\000\000\000\000\000\000I@\000\000\000\000\000\300S@\000\000\000\000\000\000\000\000\000\000\000\000\000\000\010@\315\314\314\314\314\214@@33333sG@\000\000\000\000\000\000\000\000\000\000\000\000\000\000\360?33333sH@\232\231\231\231\231yR@\000\000\000\000\000\000\000\000\000\000\000\000\000\000\034@\000\000\000\000\000\000Q@\000\000\000\000\000@T@\354Q\270\036\205\353\321?\000\000\000\000\000\000\034@33333\363B@\315\314\314\314\314\014N@\270\036\205\353Q\270\236?\000\000\000\000\000\000\000@\000\000\000\000\000\300R@fffffFV@\232\231\231\231\231\231\251?\000\000\000\000\000\000\000@\000\000\000\000\000\200E@\000\000\000\000\000\000P@\000\000\000\000\000\000\000\000\000\000\000\000\000\000\030@33333sG@33333\363L@R\270\036\205\353Q\330?\000\000\000\000\000\000\030@\000\000\000\000\000\000;@\315\314\314\314\314\014E@\000\000\000\000\000\000\000\000\000\000\000\000\000\000\020@\315\314\314\314\314\014E@33333\363L@R\270\036\205\353Q\310?\000\000\000\000\000\000\010@\000\000\000\000\000\000A@\000\000\000\000\000\200K@\000\000\000\000\000\000\000\000\000\000\000\000\000\000\030@33333\363L@\000\000\000\000\000@S@333333\303?\000\000\000\000\000\000\000@\315\314\314\314\314\014O@\232\231\231\231\2319U@\315\314\314\314\314\314\334?\000\000\000\000\000\000\010@\315\314\314\314\314\314)@\000\000\000\000\000\000<@\000\000\000\000\000\000\000\000\000\000\000\000\000\000\360?\315\314\314\314\314\214J@\000\000\000\000\000\200Q@\000\000\000\000\000\000\000\000\000\000\000\000\000\000\024@\000\000\000\000\000@R@fffffFV@\270\036\205\353Q\270\276?\000\000\000\000\000\000\034@\315\314\314\314\314\014N@\232\231\231\231\231\271T@\000\000\000\000\000\000\000\000\000\000\000\000\000\000\030@33333sH@\000\000\000\000\000\300S@\000\000\000\000\000\000\000\000\000\000\000\000\000\000\010@\000\000\000\000\000\0007@\000\000\000\000\000\000B@\000\000\000\000\000\000\000\000\000\000\000\000\000\000\030@\000\000\000\000\000\0003@\000\000\000\000\000\000B@\000\000\000\000\000\000\000\000\000\000\000\000\000\000\030@\315\314\314\314\314\214I@\232\231\231\231\231\371R@\000\000\000\000\000\000\000\000\000\000\000\000\000\000\024@\000\000\000\000\000\000K@fffff\206S@\270\036\205\353Q\270\256?\000\000\000\000\000\000\020@\000\000\000\000\000@R@\000\000\000\000\000\300V@\000\000\000\000\000\000\000\000\000\000\000\000\000\000\010@fffffFQ@fffffFV@H\341z\024\256G\361?\000\000\000\000\000\000\010@\000\000\000\000\000\000Q@fffff\306U@\000\000\000\000\000\000\000\000\000\000\000\000\000\000\034@33333\363K@\232\231\231\231\231yR@\232\231\231\231\231\231\341?\000\000\000\000\000\000\030@33333sH@\000\000\000\000\000\200O@\000\000\000\000\000\000\000\000\000\000\000\000\000\000\020@fffff\346@@\315\314\314\314\314\214J@\000\000\000\000\000\000\000\000\000\000\000\000\000\000\010@\000\000\000\000\000\200E@\000\000\000\000\000\200Q@\000\000\000\000\000\000\000\000\000\000\000\000\000\000\000@\315\314\314\314\314\014E@\000\000\000\000\000\000Q@\000\000\000\000\000\000\000\000\000\000\000\000\000\000\034@\232\231\231\231\231\0311@\315\314\314\314\314\014E@\000\000\000\000\000\000\000\000\000\000\000\000\000\000\020@fffff\3465@\000\000\000\000\000\000G@\000\000\000\000\000\000\000\000\000\000\000\000\000\000\360?\315\314\314\314\314\214J@\000\000\000\000\000\200T@{\024\256G\341z\204?\000\000\000\000\000\000\030@fffffFQ@fffffFV@\000\000\000\000\000\000\000\000\000\000\000\000\000\000\360?\000\000\000\000\000\000J@\000\000\000\000\000\200Q@\000\000\000\000\000\000\000\000\000\000\000\000\000\000\360?\315\314\314\314\314\014E@\232\231\231\231\2319P@\000\000\000\000\000\000\000\000\000\000\000\000\000\000\020@\000\000\000\000\000\000B@\000\000\000\000\000\000I@\n\327\243p=\n\327?\000\000\000\000\000\000\030@\000\000\000\000\000\000J@\000\000\000\000\000\000P@\000\000\000\000\000\000\000\000\000\000\000\000\000\000\010@fffff\306Q@fffffFV@\000\000\000\000\000\000\000\000\000\000\000\000\000\000\034@fffff\306Q@\232\231\231\231\2319U@\000\000\000\000\000\000\000\000\000\000\000\000\000\000\030@fffff\3465@33333\363B@\000\000\000\000\000\000\000\000\000\000\000\000\000\000\030@\000\000\000\000\000\000J@\000\000\000\000\000\300S@\000\000\000\000\000\000\000\000\000\000\000\000\000\000\360?\000\000\000\000\000\0005@\000\000\000\000\000\200C@\000\000\000\000\000\000\000\000\000\000\000\000\000\000\034@\000\000\000\000\000\000@@\000\000\000\000\000\000G@\000\000\000\000\000\000\000\000\000\000\000\000\000\000\024@\000\000\000\000\000\200Q@fffff\306U@\000\000\000\000\000\000\000\000\000\000\000\000\000\000\020@\000\000\000\000\000\200D@\000\000\000\000\000\200M@\000\000\000\000\000\000\000\000\000\000\000\000\000\000\000@\000\000\000\000\000@R@\232\231\231\231\231\371V@\000\000\000\000\000\000\000\000\000\000\000\000\000\000\034@\000\000\000\000\000\0003@33333\363B@\n\327\243p=\n\307?\000\000\000\000\000\000\000@\000\000\000\000\000@S@\000\000\000\000\000@X@\000\000\000\000\000\000\000\000\000\000\000\000\000\000\020@\232\231\231\231\231\271P@fffffFV@\000\000\000\000\000\000\000\000\000\000\000\000\000\000\000@\000\000\000\000\000@R@\232\231\231\231\231\371V@H\341z\024\256G\351?\000\000\000\000\000\000\020@\000\000\000\000\000\000R@\000\000\000\000\000@W@\000\000\000\000\000\000\000\000\000\000\000\000\000\000\010@fffff\006T@\000\000\000\000\000\300W@\000\000\000\000\000\000\000\000\000\000\000\000\000\000\034@\000\000\000\000\000\000\"@\000\000\000\000\000\000;@\000\000\000\000\000\000\320?\000\000\000\000\000\000\034@\232\231\231\231\231\031H@\232\231\231\231\231\231L@\n\327\243p=\n\307?\000\000\000\000\000\000\034@33333sG@\232\231\231\231\2319P@\000\000\000\000\000\000\000\000\000\000\000\000\000\000\010@\000\000\000\000\000\200N@\232\231\231\231\2319U@\000\000\000\000\000\000\000\000\000\000\000\000\000\000\000@fffff\306Q@fffffFV@\244p=\n\327\243\300?\000\000\000\000\000\000\030@\232\231\231\231\231yR@\000\000\000\000\000@W@{\024\256G\341z\224?\000\000\000\000\000\000\000@\315\314\314\314\314\314A@\315\314\314\314\314\214J@\217\302\365(\\\217\322?\000\000\000\000\000\000\034@\000\000\000\000\000\000<@\000\000\000\000\000\200E@\000\000\000\000\000\000\000\000\000\000\000\000\000\000\360?\000\000\000\000\000\000>@33333sG@\000\000\000\000\000\000\000\000\000\000\000\000\000\000\024@fffffFQ@\232\231\231\231\2319U@\000\000\000\000\000\000\000\000\000\000\000\000\000\000\030@\000\000\000\000\000\200L@\000\000\000\000\000\000Q@{\024\256G\341z\204?\000\000\000\000\000\000\034@fffff\346<@\000\000\000\000\000\200B@\000\000\000\000\000\000\000\000\000\000\000\000\000\000\000@\315\314\314\314\314\014F@\000\000\000\000\000\000P@\000\000\000\000\000\000\000\000\000\000\000\000\000\000\034@33333sH@fffff\306Q@ffffff\000@\000\000\000\000\000\000\000@\000\000\000\000\000\000K@\000\000\000\000\000@S@)\\\217\302\365(\274?\000\000\000\000\000\000\000@\315\314\314\314\314\214A@\315\314\314\314\314\214I@\000\000\000\000\000\000\000\000\000\000\000\000\000\000\000@3333335@\315\314\314\314\314\214A@\000\000\000\000\000\000\000\000\000\000\000\000\000\000\030@\000\000\000\000\000\000A@\000\000\000\000\000\000H@\270\036\205\353Q\270\336?\000\000\000\000\000\000\000@fffffFQ@\000\000\000\000\000\000U@\000\000\000\000\000\000\000\000\000\000\000\000\000\000\360?\000\000\000\000\000\200D@\000\000\000\000\000\000Q@{\024\256G\341z\204?\000\000\000\000\000\000\000@\315\314\314\314\314LO@\000\000\000\000\000\300S@H\341z\024\256G\351?\000\000\000\000\000\000\030@\000\000\000\000\000\0000@\000\000\000\000\000\000B@\000\000\000\000\000\000\000\000\000\000\000\000\000\000\360?\232\231\231\231\231\0318@\000\000\000\000\000\000B@\232\231\231\231\231\231\351?\000\000\000\000\000\000\000@\000\000\000\000\000\0007@\315\314\314\314\314\214@@\000\000\000\000\000\000\000\000\000\000\000\000\000\000\360?\000\000\000\000\000\000K@fffff\306Q@\n\327\243p=\n\307?\000\000\000\000\000\000\360?33333sH@\315\314\314\314\314\014O@\232\231\231\231\231\231\311?\000\000\000\000\000\000\034@\000\000\000\000\000\200B@\000\000\000\000\000\200O@\000\000\000\000\000\000\000\000\000\000\000\000\000\000\034@33333\363L@\000\000\000\000\000@R@\000\000\000\000\000\000\320?\000\000\000\000\000\000\034@\000\000\000\000\000\200D@\232\231\231\231\2319P@\000\000\000\000\000\000\000\000\000\000\000\000\000\000\034@\232\231\231\231\231\371R@\000\000\000\000\000\300X@\000\000\000\000\000\000\000\000\000\000\000\000\000\000\030@\000\000\000\000\000\200Q@\000\000\000\000\000\200U@\000\000\000\000\000\000\000\000\000\000\000\000\000\000\010@\000\000\000\000\000\000K@\000\000\000\000\000@R@\000\000\000\000\000\000\000\000\000\000\000\000\000\000\024@33333\363K@\000\000\000\000\000\200Q@\000\000\000\000\000\000\000\000\000\000\000\000\000\000\000@\000\000\000\000\000\200B@\000\000\000\000\000\200M@\000\000\000\000\000\000\000\000\000\000\000\000\000\000\024@\232\231\231\231\231\0311@\000\000\000\000\000\000A@\000\000\000\000\000\000\000\000\000\000\000\000\000\000\020@\315\314\314\314\314\214@@\315\314\314\314\314\014N@)\\\217\302\365(\334?\000\000\000\000\000\000\024@\000\000\000\000\000\200F@\232\231\231\231\2319P@{\024\256G\341z\224?\000\000\000\000\000\000\360?\232\231\231\231\231\031:@\315\314\314\314\314\314A@\000\000\000\000\000\000\000\000\000\000\000\000\000\000\024@33333sG@\000\000\000\000\000\200Q@\000\000\000\000\000\000\000\000\000\000\000\000\000\000\010@\232\231\231\231\231\0318@\315\314\314\314\314\014F@\000\000\000\000\000\000\000\000\000\000\000\000\000\000\020@\000\000\000\000\000\000H@\000\000\000\000\000\200P@\000\000\000\000\000\000\000\000\000\000\000\000\000\000\030@\000\000\000\000\000\200O@\000\000\000\000\000@T@\000\000\000\000\000\000\000\000\000\000\000\000\000\000\020@\000\000\000\000\000\000I@\315\314\314\314\314\014O@\n\327\243p=\n\307?\000\000\000\000\000\000\000@33333\363B@\000\000\000\000\000\000J@\232\231\231\231\231\231\271?\000\000\000\000\000\000\034@\000\000\000\000\000\000K@\000\000\000\000\000\300S@\000\000\000\000\000\000\000\000\000\000\000\000\000\000\020@\000\000\000\000\000\000B@\315\314\314\314\314\214J@R\270\036\205\353Q\310?\000\000\000\000\000\000\034@fffff\346>@\315\314\314\314\314\014E@\000\000\000\000\000\000\000\000\000\000\000\000\000\000\024@\000\000\000\000\000\000J@\000\000\000\000\000\000R@\000\000\000\000\000\000\000\000\000\000\000\000\000\000\034@33333\263B@fffff\346I@\341z\024\256G\341\312?\000\000\000\000\000\000\000@\000\000\000\000\000\000G@\000\000\000\000\000\000P@\000\000\000\000\000\000\000\000\000\000\000\000\000\000\030@\232\231\231\231\231\0311@\000\000\000\000\000\000@@\232\231\231\231\231\231\251?\000\000\000\000\000\000\010@\000\000\000\000\000\000H@\000\000\000\000\000\000P@\000\000\000\000\000\000\000\000\000\000\000\000\000\000\034@\232\231\231\231\231\271P@\232\231\231\231\231\371V@\000\000\000\000\000\000\000\000\000\000\000\000\000\000\020@\000\000\000\000\000\000H@\000\000\000\000\000\000P@\n\327\243p=\n\367?\000\000\000\000\000\000\360?\000\000\000\000\000\000<@\000\000\000\000\000\200N@\000\000\000\000\000\000\000\000\000\000\000\000\000\000\020@\315\314\314\314\314\214A@33333sH@{\024\256G\341z\204?\000\000\000\000\000\000\020@\000\000\000\000\000\200P@\232\231\231\231\231\271T@\315\314\314\314\314\314\360?\000\000\000\000\000\000\030@\000\000\000\000\000\200M@\232\231\231\231\231\371R@\354Q\270\036\205\353\301?\000\000\000\000\000\000\000@ffffffE@\315\314\314\314\314\014O@R\270\036\205\353Q\310?\000\000\000\000\000\000\034@\000\000\000\000\000\000K@fffff\306Q@H\341z\024\256G\371?\000\000\000\000\000\000\010@\000\000\000\000\000\000;@\000\000\000\000\000\200F@\000\000\000\000\000\000\340?\000\000\000\000\000\000\010@333333\017@\000\000\000\000\000\000<@)\\\217\302\365(\274?\000\000\000\000\000\000\030@\000\000\000\000\000\000J@\232\231\231\231\231\371R@\000\000\000\000\000\000\000\000\000\000\000\000\000\000\000@\000\000\000\000\000\000\360?fffff\346>@\000\000\000\000\000\000\000\000\000\000\000\000\000\000\020@\000\000\000\000\000\000G@33333\263K@\270\036\205\353Q\270\316?\000\000\000\000\000\000\000@33333sH@\000\000\000\000\000\200P@\000\000\000\000\000\000\000\000\000\000\000\000\000\000\034@\000\000\000\000\000\200E@\000\000\000\000\000\000P@\000\000\000\000\000\000\000\000\000\000\000\000\000\000\020@\000\000\000\000\000\000@@33333sG@=\n\327\243p=\352?\000\000\000\000\000\000\360?\315\314\314\314\314\314)@\000\000\000\000\000\000B@\000\000\000\000\000\000\000\000\000\000\000\000\000\000\360?fffffFQ@fffff\306U@\000\000\000\000\000\000\000\000\000\000\000\000\000\000\010@\000\000\000\000\000\000B@\000\000\000\000\000\000K@\000\000\000\000\000\000\000\000\000\000\000\000\000\000\000@\000\000\000\000\000\000H@\000\000\000\000\000\000P@\000\000\000\000\000\000\000\000\000\000\000\000\000\000\020@\315\314\314\314\314\214A@\000\000\000\000\000\200L@\232\231\231\231\231\231\351?\000\000\000\000\000\000\020@\000\000\000\000\000\000Q@\000\000\000\000\000\200U@\244p=\n\327\243\350?\000\000\000\000\000\000\010@\000\000\000\000\000\0003@33333\363C@\232\231\231\231\231\231\251?\000\000\000\000\000\000\000@\000\000\000\000\000\000P@\000\000\000\000\000\200T@\000\000\000\000\000\000\000\000\000\000\000\000\000\000\034@33333\363C@\000\000\000\000\000\200O@\000\000\000\000\000\000\000\000\000\000\000\000\000\000\024@\000\000\000\000\000\0005@33333\363B@\000\000\000\000\000\000\000\000\000\000\000\000\000\000\360?\315\314\314\314\314\314%@\000\000\000\000\000\000@@{\024\256G\341z\204?\000\000\000\000\000\000\000@fffff\306Q@\000\000\000\000\000\200U@\000\000\000\000\000\000\000\000\000\000\000\000\000\000\020@\315\314\314\314\314\014O@\232\231\231\231\231\371R@\000\000\000\000\000\000\000\000\000\000\000\000\000\000\010@\000\000\000\000\000\300R@\232\231\231\231\231yW@\244p=\n\327\243\350?\000\000\000\000\000\000\020@\315\314\314\314\314LO@\000\000\000\000\000\300R@\000\000\000\000\000\000\000\000\000\000\000\000\000\000\360?\000\000\000\000\000\000A@33333sG@\000\000\000\000\000\000\000\000\000\000\000\000\000\000\000@fffffFQ@fffff\306U@{\024\256G\341z\370?\000\000\000\000\000\000\000@\315\314\314\314\314\214I@\000\000\000\000\000\200T@\000\000\000\000\000\000\000\000\000\000\000\000\000\000\360?\232\231\231\231\231\271P@\000\000\000\000\000\000U@\000\000\000\000\000\000\000\000\000\000\000\000\000\000\024@\000\000\000\000\000\200Q@\232\231\231\231\2319U@\000\000\000\000\000\000\000\000\000\000\000\000\000\000\010@\315\314\314\314\314\214I@\232\231\231\231\231yR@\000\000\000\000\000\000\000\000\000\000\000\000\000\000\360?\000\000\000\000\000\0002@\000\000\000\000\000\000;@{\024\256G\341z\224?\000\000\000\000\000\000\024@\000\000\000\000\000\000Q@fffff\306U@\000\000\000\000\000\000\000\000\000\000\000\000\000\000\024@33333\363L@\000\000\000\000\000\300R@H\341z\024\256G\321?\000\000\000\000\000\000\010@\232\231\231\231\231\271P@\000\000\000\000\000\000U@\000\000\000\000\000\000\000\000\000\000\000\000\000\000\024@fffff\306Q@\000\000\000\000\000\200U@\354Q\270\036\205\353\261?\000\000\000\000\000\000\010@fffff\346@@33333sG@\256G\341z\024\256\327?\000\000\000\000\000\000\360?\000\000\000\000\000\000A@\315\314\314\314\314\014F@\000\000\000\000\000\000\000\000\000\000\000\000\000\000\020@\232\231\231\231\231\271P@\000\000\000\000\000\200U@\000\000\000\000\000\000\000\000\000\000\000\000\000\000\000@33333\263K@\232\231\231\231\231\371R@{\024\256G\341z\224?\000\000\000\000\000\000\000@\000\000\000\000\000\000A@\315\314\314\314\314\214I@\000\000\000\000\000\000\000\000\000\000\000\000\000\000\000@\232\231\231\231\231\271P@fffff\306U@q=\n\327\243p\345?\000\000\000\000\000\000\024@\315\314\314\314\314\014N@\232\231\231\231\231\371V@\000\000\000\000\000\000\000\000\000\000\000\000\000\000\360?\000\000\000\000\000\000P@\000\000\000\000\000\200V@\000\000\000\000\000\000\320?\000\000\000\000\000\000\030@333333 @\315\314\314\314\314\214@@\000\000\000\000\000\000\000\000\000\000\000\000\000\000\020@\000\000\000\000\000\0009@\000\000\000\000\000\200F@\232\231\231\231\231\231\271?\000\000\000\000\000\000\360?\000\000\000\000\000\200E@33333\363K@\000\000\000\000\000\000\000\000\000\000\000\000\000\000\010@\000\000\000\000\000\200O@\315\314\314\314\314\314R@H\341z\024\256G\351?\000\000\000\000\000\000\010@\000\000\000\000\000\000P@\000\000\000\000\000\200T@\000\000\000\000\000\000\000\000\000\000\000\000\000\000\030@\315\314\314\314\314\214I@\232\231\231\231\231yR@{\024\256G\341z\204?\000\000\000\000\000\000\020@\232\231\231\231\231\0311@\000\000\000\000\000\000B@\000\000\000\000\000\000\000\000\000\000\000\000\000\000\020@333333\017@fffff\3465@\000\000\000\000\000\000\000\000\000\000\000\000\000\000\360?\000\000\000\000\000\200F@\000\000\000\000\000\000P@\270\036\205\353Q\270\256?\000\000\000\000\000\000\020@\000\000\000\000\000\200K@fffffFQ@\000\000\000\000\000\000\000\000\000\000\000\000\000\000\000@\000\000\000\000\000\0002@\315\314\314\314\314\014F@\000\000\000\000\000\000\000\000\000\000\000\000\000\000\020@\000\000\000\000\000@R@\000\000\000\000\000@W@\000\000\000\000\000\000\000\000\000\000\000\000\000\000\000@\000\000\000\000\000\000I@\232\231\231\231\231yR@\000\000\000\000\000\000\000\000\000\000\000\000\000\000\000@33333\363L@\000\000\000\000\000@R@\000\000\000\000\000\000\000\000\000\000\000\000\000\000\000@\232\231\231\231\231yR@fffffFV@\000\000\000\000\000\000\000\000\000\000\000\000\000\000\010@\000\000\000\000\000\200D@\232\231\231\231\2319P@\256G\341z\024\256\357?\000\000\000\000\000\000\000@\315\314\314\314\314\214I@\000\000\000\000\000\000P@\000\000\000\000\000\000\000\000\000\000\000\000\000\000\024@fffffFQ@\000\000\000\000\000\000U@\354Q\270\036\205\353\261?\000\000\000\000\000\000\034@\000\000\000\000\000\200L@fffff\206S@\000\000\000\000\000\000\000\000\000\000\000\000\000\000\030@\000\000\000\000\000\200Q@\232\231\231\231\2319U@\000\000\000\000\000\000\000\000\000\000\000\000\000\000\000@\000\000\000\000\000\000P@\000\000\000\000\000\000U@\000\000\000\000\000\000\000\000\000\000\000\000\000\000\024@\000\000\000\000\000\000H@\000\000\000\000\000\000P@\000\000\000\000\000\000\000\000\000\000\000\000\000\000\024@\315\314\314\314\314\014E@\000\000\000\000\000\200M@\000\000\000\000\000\000\000\000\000\000\000\000\000\000\000@33333sG@\315\314\314\314\314\014N@R\270\036\205\353Q\350?\000\000\000\000\000\000\360?\000\000\000\000\000\000>@\000\000\000\000\000\000B@\000\000\000\000\000\000\000\000\000\000\000\000\000\000\030@\000\000\000\000\000\0005@\000\000\000\000\000\200B@\354Q\270\036\205\353\261?\000\000\000\000\000\000\360?\000\000\000\000\000\200O@\000\000\000\000\000\200U@\000\000\000\000\000\000\000\000\000\000\000\000\000\000\360?\000\000\000\000\000\200K@fffff\306Q@R\270\036\205\353Q\310?\000\000\000\000\000\000\010@fffff\306Q@\000\000\000\000\000\000V@\000\000\000\000\000\000\000\000\000\000\000\000\000\000\000@\232\231\231\231\231\0318@33333\363B@\270\036\205\353Q\270\236?\000\000\000\000\000\000\360?\315\314\314\314\314\014F@\232\231\231\231\2319P@\000\000\000\000\000\000\000\000\000\000\000\000\000\000\024@\000\000\000\000\000\000J@\232\231\231\231\231\371R@\000\000\000\000\000\000\000\000\000\000\000\000\000\000\360?\000\000\000\000\000\200O@\232\231\231\231\2319U@\000\000\000\000\000\000\000\000\000\000\000\000\000\000\020@\232\231\231\231\231\031:@33333\363B@\000\000\000\000\000\000\000\000\000\000\000\000\000\000\024@\315\314\314\314\314\214J@fffffFQ@\000\000\000\000\000\000\000\000\000\000\000\000\000\000\024@\000\000\000\000\000\200O@\000\000\000\000\000\000U@\000\000\000\000\000\000\000\000\000\000\000\000\000\000\030@\000\000\000\000\000\200P@\232\231\231\231\231\271T@\000\000\000\000\000\000\000\000\000\000\000\000\000\000\030@fffff\346<@\315\314\314\314\314\014F@\000\000\000\000\000\000\000\000\000\000\000\000\000\000\020@\315\314\314\314\314\214I@fffffFQ@\000\000\000\000\000\000\000\000\000\000\000\000\000\000\024@33333sG@\315\314\314\314\314\014N@\000\000\000\000\000\000\000\000\000\000\000\000\000\000\010@\000\000\000\000\000\000,@\315\314\314\314\314\214@@\244p=\n\327\243\320?\000\000\000\000\000\000\000@fffffFQ@\232\231\231\231\231\371V@\000\000\000\000\000\000\000\000\000\000\000\000\000\000\360?\315\314\314\314\314\014N@\232\231\231\231\231yR@\037\205\353Q\270\036\365?\000\000\000\000\000\000\030@\000\000\000\000\000\000I@33333\363L@\244p=\n\327\243\300?\000\000\000\000\000\000\360?\315\314\314\314\314\214@@\000\000\000\000\000\000I@\354Q\270\036\205\353\261?\000\000\000\000\000\000\360?33333sH@\000\000\000\000\000\200O@{\024\256G\341z\224?\000\000\000\000\000\000\010@\000\000\000\000\000\000K@\000\000\000\000\000\200T@\000\000\000\000\000\000\000\000\000\000\000\000\000\000\000@\000\000\000\000\000\200L@\000\000\000\000\000\300S@\000\000\000\000\000\000\000\000\000\000\000\000\000\000\000@\315\314\314\314\314\014F@\000\000\000\000\000\000P@\205\353Q\270\036\205\343?\000\000\000\000\000\000\024@\000\000\000\000\000\000I@\000\000\000\000\000\000R@\\\217\302\365(\\\367?\000\000\000\000\000\000\360?fffffFQ@\232\231\231\231\2319U@\000\000\000\000\000\000\000\000\000\000\000\000\000\000\024@\315\314\314\314\314\014E@\232\231\231\231\231\271P@\232\231\231\231\231\231\271?\000\000\000\000\000\000\034@fffff\3465@\000\000\000\000\000\000>@{\024\256G\341z\304?\000\000\000\000\000\000\000@fffffFQ@\000\000\000\000\000\200U@\000\000\000\000\000\000\000\000\000\000\000\000\000\000\360?fffff\346<@\000\000\000\000\000\200K@\000\000\000\000\000\000\000\000\000\000\000\000\000\000\020@\000\000\000\000\000\200K@fffffFQ@\000\000\000\000\000\000\000\000\000\000\000\000\000\000\010@\315\314\314\314\314\314)@33333\363B@\000\000\000\000\000\000\000\000\000\000\000\000\000\000\034@fffff\3465@\315\314\314\314\314\214@@\000\000\000\000\000\000\000\000\000\000\000\000\000\000\020@\232\231\231\231\231\371R@fffffFV@\000\000\000\000\000\000\000\000\000\000\000\000\000\000\360?\000\000\000\000\000\200P@\232\231\231\231\231\271T@\000\000\000\000\000\000\000\000\000\000\000\000\000\000\010@\000\000\000\000\000\0003@\000\000\000\000\000\200C@\366(\\\217\302\365\330?\000\000\000\000\000\000\030@\000\000\000\000\000\200Q@\000\000\000\000\000\200U@\000\000\000\000\000\000\000\000\000\000\000\000\000\000\010@\000\000\000\000\000\200P@fffff\306U@\000\000\000\000\000\000\000\000\000\000\000\000\000\000\020@\000\000\000\000\000\0007@\315\314\314\314\314\014E@\000\000\000\000\000\000\000\000\000\000\000\000\000\000\030@\000\000\000\000\000\000Q@\232\231\231\231\2319U@\000\000\000\000\000\000\000\000\000\000\000\000\000\000\010@\232\231\231\231\231\371R@\000\000\000\000\000@W@\000\000\000\000\000\000\000\000\000\000\000\000\000\000\000@\315\314\314\314\314\214A@\000\000\000\000\000\000K@{\024\256G\341z\224?\000\000\000\000\000\000\020@33333\363L@\000\000\000\000\000@R@=\n\327\243p=\332?\000\000\000\000\000\000\020@\000\000\000\000\000\000K@\000\000\000\000\000@R@\000\000\000\000\000\000\000\000\000\000\000\000\000\000\030@\000\000\000\000\000\300R@\000\000\000\000\000@W@\000\000\000\000\000\000\000\000\000\000\000\000\000\000\030@\000\000\000\000\000\000K@\000\000\000\000\000\300R@\270\036\205\353Q\270\236?\000\000\000\000\000\000\010@\000\000\000\000\000\200F@\315\314\314\314\314\014O@\\\217\302\365(\\\347?\000\000\000\000\000\000\024@\315\314\314\314\314\014N@\000\000\000\000\000\000Q@\000\000\000\000\000\000\000\000\000\000\000\000\000\000\000@fffff\206S@\000\000\000\000\000\300W@\000\000\000\000\000\000\000\000\000\000\000\000\000\000\030@\000\000\000\000\000\300R@fffffFV@\000\000\000\000\000\000\000\000\000\000\000\000\000\000\034@fffff\306Q@\000\000\000\000\000\000V@\000\000\000\000\000\000\000\000\000\000\000\000\000\000\010@\000\000\000\000\000\000;@\000\000\000\000\000\200D@\270\036\205\353Q\270\256?\000\000\000\000\000\000\010@\000\000\000\000\000\000P@\000\000\000\000\000\000V@\000\000\000\000\000\000\000\000\000\000\000\000\000\000\020@\000\000\000\000\000\000@@\000\000\000\000\000\200F@\024\256G\341z\024\002@\000\000\000\000\000\000\020@\232\231\231\231\2319P@\000\000\000\000\000\000U@\000\000\000\000\000\000\000\000\000\000\000\000\000\000\020@\000\000\000\000\000\200C@\315\314\314\314\314\214J@\000\000\000\000\000\000\000\000\000\000\000\000\000\000\020@\315\314\314\314\314\014F@\000\000\000\000\000\000R@\000\000\000\000\000\000\000\000\000\000\000\000\000\000\024@\000\000\000\000\000\0003@\315\314\314\314\314\214@@{\024\256G\341z\204?\000\000\000\000\000\000\010@fffff\306Q@\232\231\231\231\2319U@\000\000\000\000\000\000\000\000\000\000\000\000\000\000\034@33333\363C@33333sH@{\024\256G\341z\204?\000\000\000\000\000\000\034@\000\000\000\000\000\000B@\000\000\000\000\000\200L@{\024\256G\341z\204?\000\000\000\000\000\000\030@\315\314\314\314\314\214J@\000\000\000\000\000\300R@\000\000\000\000\000\000\000\000\000\000\000\000\000\000\030@\000\000\000\000\000\0002@\000\000\000\000\000\200C@\000\000\000\000\000\000\000\000\000\000\000\000\000\000\024@\000\000\000\000\000\200Q@\000\000\000\000\000\000V@\000\000\000\000\000\000\000\000\000\000\000\000\000\000\034@\315\314\314\314\314\014O@fffff\006T@\000\000\000\000\000\000\000\000\000\000\000\000\000\000\020@fffff\306Q@\000\000\000\000\000\000V@\000\000\000\000\000\000\000\000\000\000\000\000\000\000\020@fffff\306Q@\232\231\231\231\231\371V@\000\000\000\000\000\000\000\000\000\000\000\000\000\000\034@\000\000\000\000\000\200E@\315\314\314\314\314\214J@\000\000\000\000\000\000\000\000\000\000\000\000\000\000\020@33333sH@\000\000\000\000\000\200K@\354Q\270\036\205\353\261?\000\000\000\000\000\000\020@33333\363C@\000\000\000\000\000\200L@{\024\256G\341z\304?\000\000\000\000\000\000\030@\000\000\000\000\000\200F@33333\363L@\000\000\000\000\000\000\000\000\000\000\000\000\000\000\360?\000\000\000\000\000\200F@\232\231\231\231\231yR@\000\000\000\000\000\000\000\000\000\000\000\000\000\000\030@33333sH@\000\000\000\000\000\200N@\000\000\000\000\000\000\000\000\000\000\000\000\000\000\024@\315\314\314\314\314\014F@fffff\306Q@\000\000\000\000\000\000\000\000\000\000\000\000\000\000\030@\000\000\000\000\000\200D@\232\231\231\231\2319P@\000\000\000\000\000\000\000\000\000\000\000\000\000\000\360?\000\000\000\000\000@R@\000\000\000\000\000\200V@\000\000\000\000\000\000\000\000\000\000\000\000\000\000\024@\000\000\000\000\000\300R@\000\000\000\000\000@W@\000\000\000\000\000\000\000\000\000\000\000\000\000\000\034@\000\000\000\000\000\000A@\000\000\000\000\000\200K@)\\\217\302\365(\274?\000\000\000\000\000\000\030@\232\231\231\231\231\231C@\315\314\314\314\314\214I@\n\327\243p=\n\267?\000\000\000\000\000\000\010@33333sH@\000\000\000\000\000\000R@\000\000\000\000\000\000\000\000\000\000\000\000\000\000\030@fffff\306Q@\232\231\231\231\2319U@\000\000\000\000\000\000\000\000\000\000\000\000\000\000\020@\232\231\231\231\231\371R@\000\000\000\000\000\300W@\000\000\000\000\000\000\000\000\000\000\000\000\000\000\020@fffff\3465@\000\000\000\000\000\200C@\000\000\000\000\000\000\000\000\000\000\000\000\000\000\024@fffff\346<@\000\000\000\000\000\200D@\000\000\000\000\000\000\000\000\000\000\000\000\000\000\024@33333\363C@\315\314\314\314\314\014N@\000\000\000\000\000\000\000\000\000\000\000\000\000\000\020@\000\000\000\000\000\200K@fffff\306U@{\024\256G\341z\204?\000\000\000\000\000\000\010@\232\231\231\231\231\371R@\000\000\000\000\000@X@\270\036\205\353Q\270\276?\000\000\000\000\000\000\020@\000\000\000\000\000\200D@33333sG@=\n\327\243p=\332?\000\000\000\000\000\000\020@\315\314\314\314\314\014N@\000\000\000\000\000\200V@{\024\256G\341z\224?\000\000\000\000\000\000\034@\000\000\000\000\000\000H@fffffFQ@\000\000\000\000\000\000\000\000\000\000\000\000\000\000\010@\000\000\000\000\000\200M@\000\000\000\000\000@T@\000\000\000\000\000\000\000\000\000\000\000\000\000\000\020@\000\000\000\000\000\300R@fffffFV@{\024\256G\341z\204?\000\000\000\000\000\000\034@\000\000\000\000\000\000>@\315\314\314\314\314\014E@\000\000\000\000\000\000\000\000\000\000\000\000\000\000\030@\315\314\314\314\314\014O@\232\231\231\231\231yR@\000\000\000\000\000\000\000\000\000\000\000\000\000\000\010@\232\231\231\231\231\031H@\315\314\314\314\314\014N@\303\365(\\\217\302\305?\000\000\000\000\000\000\030@33333sG@fffff\306Q@{\024\256G\341z\264?\000\000\000\000\000\000\034@\000\000\000\000\000\000\010@fffff\346<@{\024\256G\341z\204?\000\000\000\000\000\000\360?\000\000\000\000\000\200P@\232\231\231\231\231\271T@H\341z\024\256G\321?\000\000\000\000\000\000\000@333333>@33333\363C@\000\000\000\000\000\000\000\000\000\000\000\000\000\000\010@\000\000\000\000\000\200K@\232\231\231\231\231\031P@\366(\\\217\302\365\330?\000\000\000\000\000\000\000@33333\363C@\315\314\314\314\314\214I@{\024\256G\341z\304?\000\000\000\000\000\000\000@fffff\306Q@\232\231\231\231\231\271T@=\n\327\243p=\342?\000\000\000\000\000\000\000@\000\000\000\000\000\000>@\000\000\000\000\000\000H@\270\036\205\353Q\270\336?\000\000\000\000\000\000\034@\000\000\000\000\000\000$@33333\363B@\000\000\000\000\000\000\000\000\000\000\000\000\000\000\000@\000\000\000\000\000\200D@\000\000\000\000\000\000P@{\024\256G\341z\224?\000\000\000\000\000\000\010@\000\000\000\000\000\200P@fffffFV@\000\000\000\000\000\000\000\000\000\000\000\000\000\000\010@\000\000\000\000\000\200C@\315\314\314\314\314\014N@{\024\256G\341z\204?\000\000\000\000\000\000\034@33333sG@\000\000\000\000\000\200O@{\024\256G\341z\244?\000\000\000\000\000\000\020@333333.@\000\000\000\000\000\0009@\232\231\231\231\231\231\251?\000\000\000\000\000\000\024@\315\314\314\314\314\014E@\000\000\000\000\000\200N@\000\000\000\000\000\000\000\000\000\000\000\000\000\000\034@\232\231\231\231\231\371R@\000\000\000\000\000\300V@\000\000\000\000\000\000\000\000\000\000\000\000\000\000\024@\000\000\000\000\000\0007@\315\314\314\314\314\014E@\000\000\000\000\000\000\000\000\000\000\000\000\000\000\024@\315\314\314\314\314\014F@\000\000\000\000\000\200O@{\024\256G\341z\224?\000\000\000\000\000\000\010@ffffff\030@33333\363B@\000\000\000\000\000\000\000\000\000\000\000\000\000\000\034@\000\000\000\000\000\000P@fffff\206S@\000\000\000\000\000\000\000\000\000\000\000\000\000\000\010@\315\314\314\314\314\214J@\000\000\000\000\000@S@\000\000\000\000\000\000\000\000\000\000\000\000\000\000\024@\000\000\000\000\000\0009@\000\000\000\000\000\200C@\000\000\000\000\000\000\000\000\000\000\000\000\000\000\020@\000\000\000\000\000\000P@\000\000\000\000\000\300S@\303\365(\\\217\302\325?\000\000\000\000\000\000\020@\000\000\000\000\000\200K@fffff\306Q@\000\000\000\000\000\000\000\000\000\000\000\000\000\000\024@\315\314\314\314\314\214I@\000\000\000\000\000\000Q@{\024\256G\341z\324?\000\000\000\000\000\000\010@\000\000\000\000\000\000A@\315\314\314\314\314\014E@\000\000\000\000\000\000\000\000\000\000\000\000\000\000\000@fffff\346<@\000\000\000\000\000\200L@\244p=\n\327\243\300?\000\000\000\000\000\000\360?fffff\346<@\000\000\000\000\000\000H@{\024\256G\341z\204?\000\000\000\000\000\000\000@\000\000\000\000\000\200B@\315\314\314\314\314\214J@\000\000\000\000\000\000\000\000\000\000\000\000\000\000\020@ffffff\030@33333\363B@\000\000\000\000\000\000\000\000\000\000\000\000\000\000\030@\000\000\000\000\000\200O@\000\000\000\000\000\300R@\000\000\000\000\000\000\000\000\000\000\000\000\000\000\034@\000\000\000\000\000\200L@fffff\306Q@\354Q\270\036\205\353\261?\000\000\000\000\000\000\020@\000\000\000\000\000\000R@\000\000\000\000\000\200V@\000\000\000\000\000\000\000\000\000\000\000\000\000\000\024@\315\314\314\314\314\214@@\000\000\000\000\000\000I@\000\000\000\000\000\000\000\000\000\000\000\000\000\000\010@\315\314\314\314\314\014F@\000\000\000\000\000\000Q@\000\000\000\000\000\000\000\000\000\000\000\000\000\000\020@\315\314\314\314\314\214J@\000\000\000\000\000\000R@\000\000\000\000\000\000\000\000\000\000\000\000\000\000\034@\000\000\000\000\000\000@@\315\314\314\314\314\014F@\000\000\000\000\000\000\000\000\000\000\000\000\000\000\034@\315\314\314\314\314\214J@\000\000\000\000\000\300S@\000\000\000\000\000\000\000\000\000\000\000\000\000\000\024@\000\000\000\000\000\000<@\000\000\000\000\000\000I@\000\000\000\000\000\000\320?\000\000\000\000\000\000\030@\000\000\000\000\000\0003@\000\000\000\000\000\000@@\000\000\000\000\000\000\000\000\000\000\000\000\000\000\020@\315\314\314\314\314\014F@\232\231\231\231\2319P@\000\000\000\000\000\000\000\000\000\000\000\000\000\000\024@\000\000\000\000\000\200D@33333sG@\270\036\205\353Q\270\256?\000\000\000\000\000\000\360?\000\000\000\000\000\200L@\000\000\000\000\000@S@{\024\256G\341z\204?\000\000\000\000\000\000\360?fffff\346<@\315\314\314\314\314\214J@\000\000\000\000\000\000\000\000\000\000\000\000\000\000\360?\000\000\000\000\000\200E@\315\314\314\314\314\014O@\000\000\000\000\000\000\000\000\000\000\000\000\000\000\034@\000\000\000\000\000\200O@\232\231\231\231\231\271T@{\024\256G\341z\224?\000\000\000\000\000\000\020@\000\000\000\000\000\000A@\315\314\314\314\314\214I@\354Q\270\036\205\353\301?\000\000\000\000\000\000\360?33333\363K@\000\000\000\000\000@T@{\024\256G\341z\224?\000\000\000\000\000\000\000@33333\363K@fffff\306U@\000\000\000\000\000\000\000\000\000\000\000\000\000\000\030@\315\314\314\314\314\014F@\315\314\314\314\314\014N@333333\303?\000\000\000\000\000\000\010@33333\363K@\232\231\231\231\231\371R@\000\000\000\000\000\000\000\000\000\000\000\000\000\000\000@fffffFQ@\000\000\000\000\000\200U@\000\000\000\000\000\000\000\000\000\000\000\000\000\000\000@\000\000\000\000\000\200F@\000\000\000\000\000\200N@\000\000\000\000\000\000\000\000\000\000\000\000\000\000\030@\000\000\000\000\000\000<@\000\000\000\000\000\200C@\000\000\000\000\000\000\000\000\000\000\000\000\000\000\030@\000\000\000\000\000\200E@\000\000\000\000\000\200M@)\\\217\302\365(\354?\000\000\000\000\000\000\024@\000\000\000\000\000\000<@33333\363B@\000\000\000\000\000\000\000\000\000\000\000\000\000\000\024@\000\000\000\000\000\000;@\000\000\000\000\000\000B@\000\000\000\000\000\000\000\000\000\000\000\000\000\000\024@fffff\346<@\000\000\000\000\000\000H@\000\000\000\000\000\000\000\000\000\000\000\000\000\000\034@\000\000\000\000\000\200E@\315\314\314\314\314\014N@\000\000\000\000\000\000\000\000\000\000\000\000\000\000\000@\000\000\000\000\000\0003@33333\363B@\000\000\000\000\000\000\000\000\000\000\000\000\000\000\010@\000\000\000\000\000\000>@33333sH@\000\000\000\000\000\000\000\000\000\000\000\000\000\000\030@\315\314\314\314\314\214A@33333sG@\000\000\000\000\000\000\000\000\000\000\000\000\000\000\020@\000\000\000\000\000\300R@\000\000\000\000\000\000V@\000\000\000\000\000\000\000\000\000\000\000\000\000\000\024@\000\000\000\000\000\000A@\315\314\314\314\314\214I@\037\205\353Q\270\036\361?\000\000\000\000\000\000\010@\232\231\231\231\231\371R@\232\231\231\231\231\371V@\000\000\000\000\000\000\000\000\000\000\000\000\000\000\024@\000\000\000\000\000\200B@\000\000\000\000\000\000I@\000\000\000\000\000\000\000\000\000\000\000\000\000\000\024@33333\363B@\315\314\314\314\314\214J@\270\036\205\353Q\270\236?\000\000\000\000\000\000\034@\232\231\231\231\231yR@\000\000\000\000\000\300V@\000\000\000\000\000\000\000\000\000\000\000\000\000\000\010@\000\000\000\000\000\000Q@\000\000\000\000\000\200U@\000\000\000\000\000\000\000\000\000\000\000\000\000\000\020@\000\000\000\000\000\000Q@\000\000\000\000\000\000U@\000\000\000\000\000\000\000\000\000\000\000\000\000\000\034@\232\231\231\231\231\271P@\000\000\000\000\000@T@\000\000\000\000\000\000\000\000\000\000\000\000\000\000\000@\000\000\000\000\000\0000@\315\314\314\314\314\014E@)\\\217\302\365(\274?\000\000\000\000\000\000\024@\232\231\231\231\231\0318@\000\000\000\000\000\200C@\000\000\000\000\000\000\000\000\000\000\000\000\000\000\020@fffff\306Q@\232\231\231\231\2319U@\000\000\000\000\000\000\000\000\000\000\000\000\000\000\010@\000\000\000\000\000\000I@\000\000\000\000\000\000Q@\000\000\000\000\000\000\000\000\000\000\000\000\000\000\024@\232\231\231\231\2319P@\232\231\231\231\231\271T@\000\000\000\000\000\000\000\000\000\000\000\000\000\000\020@fffff\306Q@\000\000\000\000\000@T@ffffff\356?\000\000\000\000\000\000\360?\232\231\231\231\231\371R@\000\000\000\000\000\300V@\000\000\000\000\000\000\000\000\000\000\000\000\000\000\360?\000\000\000\000\000\000H@\000\000\000\000\000\000R@\000\000\000\000\000\000\000\000\000\000\000\000\000\000\360?\232\231\231\231\231\271P@\000\000\000\000\000@S@\000\000\000\000\000\000\000\000\000\000\000\000\000\000\034@\315\314\314\314\314\214A@\232\231\231\231\2319P@\000\000\000\000\000\000\000\000\000\000\000\000\000\000\034@\000\000\000\000\000\200L@\000\000\000\000\000\000Q@q=\n\327\243p\361?\000\000\000\000\000\000\034@\000\000\000\000\000\200Q@\000\000\000\000\000\200U@\000\000\000\000\000\000\000\000\000\000\000\000\000\000\360?\232\231\231\231\2319P@fffff\006T@\000\000\000\000\000\000\000\000\000\000\000\000\000\000\020@33333\363B@\315\314\314\314\314\014O@\000\000\000\000\000\000\000\000\000\000\000\000\000\000\000@\315\314\314\314\314\214@@\000\000\000\000\000\200N@\000\000\000\000\000\000\000\000\000\000\000\000\000\000\024@\000\000\000\000\000\300R@\000\000\000\000\000\300W@\000\000\000\000\000\000\000\000\000\000\000\000\000\000\024@\232\231\231\231\2319P@fffff\206S@\n\327\243p=\n\347?\000\000\000\000\000\000\034@\000\000\000\000\000\000@@\315\314\314\314\314\014F@\232\231\231\231\231\231\251?\000\000\000\000\000\000\020@\000\000\000\000\000\200C@\315\314\314\314\314\214J@\000\000\000\000\000\000\000\000\000\000\000\000\000\000\360?33333\363C@\315\314\314\314\314\214J@\000\000\000\000\000\000\000\000\000\000\000\000\000\000\010@33333\363C@\315\314\314\314\314\214I@{\024\256G\341z\224?\000\000\000\000\000\000\360?333333>@33333sG@{\024\256G\341z\224?\000\000\000\000\000\000\020@\000\000\000\000\000\000I@fffffFQ@\270\036\205\353Q\270\316?\000\000\000\000\000\000\034@\000\000\000\000\000\0009@\315\314\314\314\314\014O@\000\000\000\000\000\000\000\000\000\000\000\000\000\000\024@\000\000\000\000\000\000I@\000\000\000\000\000\000R@\000\000\000\000\000\000\000\000\000\000\000\000\000\000\034@\000\000\000\000\000@S@\232\231\231\231\231\371V@\000\000\000\000\000\000\000\000\000\000\000\000\000\000\010@\000\000\000\000\000\200M@\000\000\000\000\000@R@\000\000\000\000\000\000\000\000\000\000\000\000\000\000\010@\000\000\000\000\000\200L@\232\231\231\231\231\371R@333333\303?\000\000\000\000\000\000\020@\000\000\000\000\000\200D@\000\000\000\000\000\300R@\000\000\000\000\000\000\000\000\000\000\000\000\000\000\034@\000\000\000\000\000\000P@\000\000\000\000\000\300S@\000\000\000\000\000\000\000\000\000\000\000\000\000\000\030@\000\000\000\000\000\000J@\000\000\000\000\000\200O@\n\327\243p=\n\267?\000\000\000\000\000\000\024@\000\000\000\000\000\200B@\000\000\000\000\000\200D@\000\000\000\000\000\000\000\000\000\000\000\000\000\000\034@\000\000\000\000\000\000R@\000\000\000\000\000\300V@\000\000\000\000\000\000\000\000\000\000\000\000\000\000\360?\000\000\000\000\000\000,@\315\314\314\314\314\014E@\270\036\205\353Q\270\346?\000\000\000\000\000\000\024@\000\000\000\000\000\000I@\000\000\000\000\000\200Q@\000\000\000\000\000\000\000\000\000\000\000\000\000\000\034@\000\000\000\000\000@R@\000\000\000\000\000\300V@\000\000\000\000\000\000\000\000\000\000\000\000\000\000\360?33333\363C@\315\314\314\314\314\214I@R\270\036\205\353Q\340?\000\000\000\000\000\000\000@\315\314\314\314\314\214@@\000\000\000\000\000\200N@\000\000\000\000\000\000\000\000\000\000\000\000\000\000\030@\000\000\000\000\000\000I@fffff\206S@\000\000\000\000\000\000\000\000\000\000\000\000\000\000\000@\000\000\000\000\000\200L@\000\000\000\000\000@R@\000\000\000\000\000\000\000\000\000\000\000\000\000\000\034@\232\231\231\231\231\231L@\000\000\000\000\000\000P@\366(\\\217\302\365\330?\000\000\000\000\000\000\024@\315\314\314\314\314\214J@fffff\206S@\000\000\000\000\000\000\000\000\000\000\000\000\000\000\360?\315\314\314\314\314\014E@\000\000\000\000\000\200K@\000\000\000\000\000\000\000\000\000\000\000\000\000\000\360?\315\314\314\314\314\214@@33333sG@\000\000\000\000\000\000\000\000\000\000\000\000\000\000\020@333333G@33333\363L@)\\\217\302\365(\274?\000\000\000\000\000\000\360?\000\000\000\000\000@R@\232\231\231\231\231\371V@\000\000\000\000\000\000\000\000\000\000\000\000\000\000\024@\232\231\231\231\231\271P@\000\000\000\000\000\200U@\000\000\000\000\000\000\000\000\000\000\000\000\000\000\020@\000\000\000\000\000\000P@\000\000\000\000\000@R@\270\036\205\353Q\270\256?\000\000\000\000\000\000\024@\000\000\000\000\000\200F@\000\000\000\000\000\000P@\000\000\000\000\000\000\000\000\000\000\000\000\000\000\034@\000\000\000\000\000\000J@fffff\206S@\000\000\000\000\000\000\340?\000\000\000\000\000\000\000@\000\000\000\000\000\000I@\232\231\231\231\231\271P@{\024\256G\341z\324?\000\000\000\000\000\000\020@\000\000\000\000\000\000,@\232\231\231\231\231\031:@\000\000\000\000\000\000\000\000\000\000\000\000\000\000\360?\000\000\000\000\000\000I@\000\000\000\000\000@T@\000\000\000\000\000\000\000\000\000\000\000\000\000\000\024@\000\000\000\000\000\200K@\000\000\000\000\000\300R@\000\000\000\000\000\000\000\000\000\000\000\000\000\000\360?\000\000\000\000\000\200D@\000\000\000\000\000\000I@\000\000\000\000\000\000\000\000\000\000\000\000\000\000\020@\315\314\314\314\314\314A@33333\263K@333333\323?\000\000\000\000\000\000\034@\000\000\000\000\000\200L@\000\000\000\000\000\300R@\000\000\000\000\000\000\000\000\000\000\000\000\000\000\030@\000\000\000\000\000\000Q@\232\231\231\231\231\271T@\327\243p=\n\327\323?\000\000\000\000\000\000\360?\000\000\000\000\000\000Q@\000\000\000\000\000\300S@)\\\217\302\365(\314?\000\000\000\000\000\000\020@33333sH@fffffFQ@\000\000\000\000\000\000\000\000\000\000\000\000\000\000\024@\000\000\000\000\000\000Q@\232\231\231\231\231\271T@\000\000\000\000\000\000\000\000\000\000\000\000\000\000\030@\000\000\000\000\000\200F@\000\000\000\000\000\200M@\341z\024\256G\341\312?\000\000\000\000\000\000\030@\000\000\000\000\000\200D@33333\363K@{\024\256G\341z\224?\000\000\000\000\000\000\034@\000\000\000\000\000\200P@\232\231\231\231\2319U@\000\000\000\000\000\000\000\000\000\000\000\000\000\000\010@\315\314\314\314\314\014O@\232\231\231\231\2319U@\232\231\231\231\231\231\251?\000\000\000\000\000\000\010@\000\000\000\000\000\200P@\232\231\231\231\231\271T@\000\000\000\000\000\000\000\000\000\000\000\000\000\000\034@\000\000\000\000\000\000;@\000\000\000\000\000\200K@)\\\217\302\365(\314?\000\000\000\000\000\000\034@\000\000\000\000\000\000>@33333\363B@\000\000\000\000\000\000\000\000\000\000\000\000\000\000\034@\232\231\231\231\231\0311@\315\314\314\314\314\214@@\270\036\205\353Q\270\256?\000\000\000\000\000\000\010@\000\000\000\000\000\000J@\000\000\000\000\000@R@\000\000\000\000\000\000\000\000\000\000\000\000\000\000\020@\000\000\000\000\000\200Q@\000\000\000\000\000\300V@\000\000\000\000\000\000\000\000\000\000\000\000\000\000\034@\315\314\314\314\314\014O@\232\231\231\231\231\371R@\000\000\000\000\000\000\000\000\000\000\000\000\000\000\020@\315\314\314\314\314\214I@\000\000\000\000\000@R@\000\000\000\000\000\000\000\000\000\000\000\000\000\000\360?33333\363C@\315\314\314\314\314\014O@\000\000\000\000\000\000\000\000\000\000\000\000\000\000\360?\000\000\000\000\000\200E@\232\231\231\231\2319P@\000\000\000\000\000\000\000\000\000\000\000\000\000\000\000@\315\314\314\314\314\214@@\000\000\000\000\000\000K@\000\000\000\000\000\000\000\000\000\000\000\000\000\000\024@fffff\3465@\000\000\000\000\000\000A@)\\\217\302\365(\334?\000\000\000\000\000\000\030@\315\314\314\314\314\214I@\315\314\314\314\314\014N@{\024\256G\341z\204?\000\000\000\000\000\000\000@\000\000\000\000\000\000B@\315\314\314\314\314\214I@\000\000\000\000\000\000\000\000\000\000\000\000\000\000\360?\000\000\000\000\000\200B@\315\314\314\314\314\014O@\244p=\n\327\243\340?\000\000\000\000\000\000\010@\000\000\000\000\000\200K@\315\314\314\314\314LO@\000\000\000\000\000\000\000\000\000\000\000\000\000\000\030@\000\000\000\000\000\200Q@fffff\306U@\000\000\000\000\000\000\000\000\000\000\000\000\000\000\360?\315\314\314\314\314\214A@\000\000\000\000\000\200N@\270\036\205\353Q\270\316?\000\000\000\000\000\000\010@\232\231\231\231\231\271P@\000\000\000\000\000\200T@\000\000\000\000\000\000\000\000\000\000\000\000\000\000\360?fffff\306Q@fffffFV@\000\000\000\000\000\000\000\000\000\000\000\000\000\000\010@\000\000\000\000\000\000P@\000\000\000\000\000@S@\000\000\000\000\000\000\000\000\000\000\000\000\000\000\010@\000\000\000\000\000\0009@\000\000\000\000\000\200F@\315\314\314\314\314\314\334?\000\000\000\000\000\000\030@\000\000\000\000\000\200L@\000\000\000\000\000\300R@\000\000\000\000\000\000\000\000\000\000\000\000\000\000\024@\315\314\314\314\314\014O@\000\000\000\000\000@T@\232\231\231\231\231\231\331?\000\000\000\000\000\000\034@\000\000\000\000\000\000A@\000\000\000\000\000\200F@\000\000\000\000\000\000\000\000\000\000\000\000\000\000\030@\315\314\314\314\314\014N@fffff\206S@\000\000\000\000\000\000\000\000\000\000\000\000\000\000\360?\000\000\000\000\000\0009@\000\000\000\000\000\200C@333333\303?\000\000\000\000\000\000\000@\315\314\314\314\314\214J@\232\231\231\231\231\371R@\000\000\000\000\000\000\000\000\000\000\000\000\000\000\010@\232\231\231\231\231\031:@\000\000\000\000\000\200C@{\024\256G\341z\244?\000\000\000\000\000\000\024@\000\000\000\000\000\200M@\000\000\000\000\000\300R@\000\000\000\000\000\000\000\000\000\000\000\000\000\000\360?\232\231\231\231\231\031:@\000\000\000\000\000\200N@\354Q\270\036\205\353\341?\000\000\000\000\000\000\020@\315\314\314\314\314\314)@\000\000\000\000\000\200E@\000\000\000\000\000\000\000\000\000\000\000\000\000\000\030@\000\000\000\000\000\200K@\000\000\000\000\000\300R@\000\000\000\000\000\000\000\000\000\000\000\000\000\000\010@fffffFQ@\000\000\000\000\000\000U@\000\000\000\000\000\000\000\000\000\000\000\000\000\000\360?33333\363C@\000\000\000\000\000\000P@\000\000\000\000\000\000\000\000\000\000\000\000\000\000\024@\000\000\000\000\000\200Q@\000\000\000\000\000\200U@\000\000\000\000\000\000\000\000\000\000\000\000\000\000\360?\000\000\000\000\000\200D@\000\000\000\000\000\000P@\000\000\000\000\000\000\000\000\000\000\000\000\000\000\000@fffff\306Q@\232\231\231\231\2319U@=\n\327\243p=\332?\000\000\000\000\000\000\020@\000\000\000\000\000\000;@33333\363C@{\024\256G\341z\204?\000\000\000\000\000\000\020@fffff\306Q@fffffFV@\000\000\000\000\000\000\000\000\000\000\000\000\000\000\024@fffff\3465@\000\000\000\000\000\000G@\000\000\000\000\000\000\000\000\000\000\000\000\000\000\020@\000\000\000\000\000\200D@\000\000\000\000\000\200K@\000\000\000\000\000\000\000\000\000\000\000\000\000\000\010@\232\231\231\231\231\271P@\000\000\000\000\000\000U@\000\000\000\000\000\000\000\000\000\000\000\000\000\000\010@\000\000\000\000\000\200B@\000\000\000\000\000\200K@\354Q\270\036\205\353\261?\000\000\000\000\000\000\010@\000\000\000\000\000\200B@\232\231\231\231\2319P@\000\000\000\000\000\000\000\000\000\000\000\000\000\000\020@\000\000\000\000\000\000R@fffffFV@\000\000\000\000\000\000\000\000\000\000\000\000\000\000\020@\000\000\000\000\000\000K@\000\000\000\000\000\200U@\000\000\000\000\000\000\000\000\000\000\000\000\000\000\030@\315\314\314\314\314\214J@\232\231\231\231\231\031P@\217\302\365(\\\217\362?\000\000\000\000\000\000\024@\000\000\000\000\000\200P@fffff\306U@\270\036\205\353Q\270\276?\000\000\000\000\000\000\360?33333\363L@\000\000\000\000\000\000R@\232\231\231\231\231\231\311?\000\000\000\000\000\000\010@\000\000\000\000\000\200D@\000\000\000\000\000\200K@\000\000\000\000\000\000\000\000\000\000\000\000\000\000\030@fffff\346@@33333sG@{\024\256G\341z\224?\000\000\000\000\000\000\034@333333>@\000\000\000\000\000\200C@\000\000\000\000\000\000\320?\000\000\000\000\000\000\360?\232\231\231\231\231\231L@\232\231\231\231\231\031P@\000\000\000\000\000\000\000\000\000\000\000\000\000\000\360?\232\231\231\231\231\031:@\000\000\000\000\000\000B@{\024\256G\341z\204?\000\000\000\000\000\000\360?33333\363B@33333sG@\270\036\205\353Q\270\236?\000\000\000\000\000\000\010@33333sH@\232\231\231\231\2319P@\000\000\000\000\000\000\000\000\000\000\000\000\000\000\024@\000\000\000\000\000\000;@\000\000\000\000\000\200C@\000\000\000\000\000\000\000\000\000\000\000\000\000\000\024@33333sG@\232\231\231\231\231\371R@\000\000\000\000\000\000\000\000\000\000\000\000\000\000\020@\315\314\314\314\314\214I@fffff\306Q@\000\000\000\000\000\000\000\000\000\000\000\000\000\000\360?\000\000\000\000\000\000>@\000\000\000\000\000\200K@\000\000\000\000\000\000\000\000\000\000\000\000\000\000\360?fffffFQ@fffff\306U@\000\000\000\000\000\000\000\000\000\000\000\000\000\000\034@\000\000\000\000\000\000P@\232\231\231\231\2319U@\000\000\000\000\000\000\000\000\000\000\000\000\000\000\360?\232\231\231\231\2319P@fffff\306U@\000\000\000\000\000\000\000\000\000\000\000\000\000\000\010@\000\000\000\000\000\300R@fffffFV@\000\000\000\000\000\000\000\000\000\000\000\000\000\000\000@33333sH@\232\231\231\231\231yR@{\024\256G\341z\264?\000\000\000\000\000\000\010@\232\231\231\231\231\2311@fffff\346<@\000\000\000\000\000\000\000\000\000\000\000\000\000\000\010@\000\000\000\000\000\200C@\000\000\000\000\000\200E@\000\000\000\000\000\000\000\000\000\000\000\000\000\000\020@\000\000\000\000\000\000,@33333\363C@\000\000\000\000\000\000\000\000\000\000\000\000\000\000\034@fffff\346I@\315\314\314\314\314\014O@\244p=\n\327\243\300?\000\000\000\000\000\000\024@\000\000\000\000\000\200M@\232\231\231\231\231\371R@{\024\256G\341z\204?\000\000\000\000\000\000\034@\000\000\000\000\000\200Q@\000\000\000\000\000\200U@\000\000\000\000\000\000\000\000\000\000\000\000\000\000\034@\000\000\000\000\000\200E@\000\000\000\000\000\000J@\000\000\000\000\000\000\000\000\000\000\000\000\000\000\020@\315\314\314\314\314\014O@\232\231\231\231\2319U@\270\036\205\353Q\270\256?\000\000\000\000\000\000\030@\315\314\314\314\314\014E@33333\363L@\037\205\353Q\270\036\365?\000\000\000\000\000\000\020@fffffFQ@\000\000\000\000\000\000U@\000\000\000\000\000\000\000\000\000\000\000\000\000\000\030@fffffFQ@\000\000\000\000\000\200T@\000\000\000\000\000\000\000\000\000\000\000\000\000\000\020@33333sG@\000\000\000\000\000\200Q@\000\000\000\000\000\000\000\000\000\000\000\000\000\000\034@\000\000\000\000\000\000I@\000\000\000\000\000\000P@\270\036\205\353Q\270\236?\000\000\000\000\000\000\360?\000\000\000\000\000\200D@\000\000\000\000\000\200K@\205\353Q\270\036\205\377?\000\000\000\000\000\000\024@33333\363L@\000\000\000\000\000\200Q@{\024\256G\341z\224?\000\000\000\000\000\000\024@\315\314\314\314\314\014E@33333\363L@\024\256G\341z\024\346?\000\000\000\000\000\000\360?33333\363K@\000\000\000\000\000\200Q@\000\000\000\000\000\000\000\000\000\000\000\000\000\000\000@\315\314\314\314\314\214I@\315\314\314\314\314\014O@\000\000\000\000\000\000\000\000\000\000\000\000\000\000\020@\315\314\314\314\314\214@@33333sH@\000\000\000\000\000\000\000\000\000\000\000\000\000\000\020@fffff\346Q@\000\000\000\000\000\200U@{\024\256G\341z\204?\000\000\000\000\000\000\360?\000\000\000\000\000\200Q@\000\000\000\000\000\000U@\000\000\000\000\000\000\000\000\000\000\000\000\000\000\024@\000\000\000\000\000@S@fffff\006X@\000\000\000\000\000\000\000\000\000\000\000\000\000\000\024@\000\000\000\000\000\000Q@\000\000\000\000\000\000U@\000\000\000\000\000\000\000\000\000\000\000\000\000\000\024@\000\000\000\000\000\000A@\000\000\000\000\000\000H@\000\000\000\000\000\000\000\000\000\000\000\000\000\000\000@\000\000\000\000\000\200Q@\000\000\000\000\000\000U@\000\000\000\000\000\000\000\000\000\000\000\000\000\000\360?\000\000\000\000\000\000P@\000\000\000\000\000@S@\000\000\000\000\000\000\000\000\000\000\000\000\000\000\010@\000\000\000\000\000@R@\000\000\000\000\000\000V@\000\000\000\000\000\000\000\000\000\000\000\000\000\000\034@fffffFQ@\232\231\231\231\2319U@\000\000\000\000\000\000\000\000\000\000\000\000\000\000\360?\000\000\000\000\000\200K@\000\000\000\000\000\200T@\303\365(\\\217\302\355?\000\000\000\000\000\000\034@\232\231\231\231\231\271P@\232\231\231\231\231\371R@{\024\256G\341z\244?\000\000\000\000\000\000\034@\000\000\000\000\000\000K@fffffFQ@\000\000\000\000\000\000\000\000\000\000\000\000\000\000\034@33333sH@\232\231\231\231\231yR@\000\000\000\000\000\000\000\000\000\000\000\000\000\000\360?\000\000\000\000\000@S@\000\000\000\000\000@W@\000\000\000\000\000\000\000\000\000\000\000\000\000\000\030@\000\000\000\000\000\000Q@\000\000\000\000\000\200U@\000\000\000\000\000\000\000\000"
      }
    }
  }
}
node {
  name: "Const_1"
  op: "Const"
  attr {
    key: "_output_shapes"
    value {
      list {
        shape {
          dim {
            size: 876
          }
          dim {
            size: 1
          }
        }
      }
    }
  }
  attr {
    key: "dtype"
    value {
      type: DT_DOUBLE
    }
  }
  attr {
    key: "value"
    value {
      tensor {
        dtype: DT_DOUBLE
        tensor_shape {
          dim {
            size: 876
          }
          dim {
            size: 1
          }
        }
